#pragma once

// Auto-generated by export_model.py — do not edit manually
// Model size: 24552 bytes

#include <stdint.h>

alignas(16) const unsigned char g_model_data[] = {
    0x1c, 0x00, 0x00, 0x00, 0x54, 0x46, 0x4c, 0x33, 0x14, 0x00, 0x20, 0x00,
    0x1c, 0x00, 0x18, 0x00, 0x14, 0x00, 0x10, 0x00, 0x0c, 0x00, 0x00, 0x00,
    0x08, 0x00, 0x04, 0x00, 0x14, 0x00, 0x00, 0x00, 0x1c, 0x00, 0x00, 0x00,
    0x94, 0x00, 0x00, 0x00, 0x14, 0x01, 0x00, 0x00, 0xa8, 0x41, 0x00, 0x00,
    0xb8, 0x41, 0x00, 0x00, 0x40, 0x5f, 0x00, 0x00, 0x03, 0x00, 0x00, 0x00,
    0x01, 0x00, 0x00, 0x00, 0x10, 0x00, 0x00, 0x00, 0x00, 0x00, 0x0a, 0x00,
    0x10, 0x00, 0x0c, 0x00, 0x08, 0x00, 0x04, 0x00, 0x0a, 0x00, 0x00, 0x00,
    0x0c, 0x00, 0x00, 0x00, 0x1c, 0x00, 0x00, 0x00, 0x3c, 0x00, 0x00, 0x00,
    0x0f, 0x00, 0x00, 0x00, 0x73, 0x65, 0x72, 0x76, 0x69, 0x6e, 0x67, 0x5f,
    0x64, 0x65, 0x66, 0x61, 0x75, 0x6c, 0x74, 0x00, 0x01, 0x00, 0x00, 0x00,
    0x04, 0x00, 0x00, 0x00, 0x6c, 0xff, 0xff, 0xff, 0x18, 0x00, 0x00, 0x00,
    0x04, 0x00, 0x00, 0x00, 0x08, 0x00, 0x00, 0x00, 0x6f, 0x75, 0x74, 0x70,
    0x75, 0x74, 0x5f, 0x30, 0x00, 0x00, 0x00, 0x00, 0x01, 0x00, 0x00, 0x00,
    0x04, 0x00, 0x00, 0x00, 0x32, 0xbe, 0xff, 0xff, 0x04, 0x00, 0x00, 0x00,
    0x0b, 0x00, 0x00, 0x00, 0x69, 0x6e, 0x70, 0x75, 0x74, 0x5f, 0x6c, 0x61,
    0x79, 0x65, 0x72, 0x00, 0x03, 0x00, 0x00, 0x00, 0x5c, 0x00, 0x00, 0x00,
    0x2c, 0x00, 0x00, 0x00, 0x04, 0x00, 0x00, 0x00, 0xb8, 0xff, 0xff, 0xff,
    0x1c, 0x00, 0x00, 0x00, 0x04, 0x00, 0x00, 0x00, 0x13, 0x00, 0x00, 0x00,
    0x43, 0x4f, 0x4e, 0x56, 0x45, 0x52, 0x53, 0x49, 0x4f, 0x4e, 0x5f, 0x4d,
    0x45, 0x54, 0x41, 0x44, 0x41, 0x54, 0x41, 0x00, 0xdc, 0xff, 0xff, 0xff,
    0x1b, 0x00, 0x00, 0x00, 0x04, 0x00, 0x00, 0x00, 0x13, 0x00, 0x00, 0x00,
    0x6d, 0x69, 0x6e, 0x5f, 0x72, 0x75, 0x6e, 0x74, 0x69, 0x6d, 0x65, 0x5f,
    0x76, 0x65, 0x72, 0x73, 0x69, 0x6f, 0x6e, 0x00, 0x08, 0x00, 0x0c, 0x00,
    0x08, 0x00, 0x04, 0x00, 0x08, 0x00, 0x00, 0x00, 0x1a, 0x00, 0x00, 0x00,
    0x04, 0x00, 0x00, 0x00, 0x13, 0x00, 0x00, 0x00, 0x6d, 0x69, 0x6e, 0x5f,
    0x72, 0x75, 0x6e, 0x74, 0x69, 0x6d, 0x65, 0x5f, 0x76, 0x65, 0x72, 0x73,
    0x69, 0x6f, 0x6e, 0x00, 0x1d, 0x00, 0x00, 0x00, 0x90, 0x40, 0x00, 0x00,
    0x88, 0x40, 0x00, 0x00, 0x70, 0x40, 0x00, 0x00, 0x54, 0x40, 0x00, 0x00,
    0x14, 0x40, 0x00, 0x00, 0xc4, 0x3f, 0x00, 0x00, 0xb4, 0x3d, 0x00, 0x00,
    0x24, 0x3d, 0x00, 0x00, 0x14, 0x19, 0x00, 0x00, 0x84, 0x18, 0x00, 0x00,
    0x74, 0x06, 0x00, 0x00, 0x24, 0x06, 0x00, 0x00, 0x94, 0x01, 0x00, 0x00,
    0x64, 0x01, 0x00, 0x00, 0x0c, 0x01, 0x00, 0x00, 0x04, 0x01, 0x00, 0x00,
    0xfc, 0x00, 0x00, 0x00, 0xf4, 0x00, 0x00, 0x00, 0xec, 0x00, 0x00, 0x00,
    0xe4, 0x00, 0x00, 0x00, 0xdc, 0x00, 0x00, 0x00, 0xd4, 0x00, 0x00, 0x00,
    0xcc, 0x00, 0x00, 0x00, 0xc4, 0x00, 0x00, 0x00, 0xbc, 0x00, 0x00, 0x00,
    0xb4, 0x00, 0x00, 0x00, 0x94, 0x00, 0x00, 0x00, 0x74, 0x00, 0x00, 0x00,
    0x04, 0x00, 0x00, 0x00, 0x46, 0xbf, 0xff, 0xff, 0x04, 0x00, 0x00, 0x00,
    0x60, 0x00, 0x00, 0x00, 0x0c, 0x00, 0x00, 0x00, 0x08, 0x00, 0x0e, 0x00,
    0x08, 0x00, 0x04, 0x00, 0x08, 0x00, 0x00, 0x00, 0x10, 0x00, 0x00, 0x00,
    0x28, 0x00, 0x00, 0x00, 0x00, 0x00, 0x06, 0x00, 0x08, 0x00, 0x04, 0x00,
    0x06, 0x00, 0x00, 0x00, 0x04, 0x00, 0x00, 0x00, 0x01, 0x00, 0x00, 0x00,
    0xeb, 0x03, 0x00, 0x00, 0x0c, 0x00, 0x18, 0x00, 0x14, 0x00, 0x10, 0x00,
    0x0c, 0x00, 0x04, 0x00, 0x0c, 0x00, 0x00, 0x00, 0x81, 0x9b, 0x4f, 0xc0,
    0x53, 0xe5, 0xd6, 0x6c, 0x02, 0x00, 0x00, 0x00, 0x02, 0x00, 0x00, 0x00,
    0x04, 0x00, 0x00, 0x00, 0x06, 0x00, 0x00, 0x00, 0x32, 0x2e, 0x31, 0x37,
    0x2e, 0x31, 0x00, 0x00, 0xb2, 0xbf, 0xff, 0xff, 0x04, 0x00, 0x00, 0x00,
    0x10, 0x00, 0x00, 0x00, 0x00, 0x00, 0x00, 0x00, 0x00, 0x00, 0x00, 0x00,
    0x00, 0x00, 0x00, 0x00, 0x00, 0x00, 0x00, 0x00, 0xce, 0xbf, 0xff, 0xff,
    0x04, 0x00, 0x00, 0x00, 0x10, 0x00, 0x00, 0x00, 0x31, 0x2e, 0x31, 0x34,
    0x2e, 0x30, 0x00, 0x00, 0x00, 0x00, 0x00, 0x00, 0x00, 0x00, 0x00, 0x00,
    0xbc, 0xa3, 0xff, 0xff, 0xc0, 0xa3, 0xff, 0xff, 0xc4, 0xa3, 0xff, 0xff,
    0xc8, 0xa3, 0xff, 0xff, 0xcc, 0xa3, 0xff, 0xff, 0xd0, 0xa3, 0xff, 0xff,
    0xd4, 0xa3, 0xff, 0xff, 0xd8, 0xa3, 0xff, 0xff, 0xdc, 0xa3, 0xff, 0xff,
    0xe0, 0xa3, 0xff, 0xff, 0xe4, 0xa3, 0xff, 0xff, 0x16, 0xc0, 0xff, 0xff,
    0x04, 0x00, 0x00, 0x00, 0x48, 0x00, 0x00, 0x00, 0xdf, 0xdf, 0x00, 0xec,
    0x81, 0x58, 0x18, 0x2d, 0xa6, 0xe4, 0xf2, 0xdd, 0xa7, 0x21, 0xae, 0x81,
    0xc5, 0xdb, 0x72, 0x81, 0x04, 0x73, 0xca, 0xfd, 0x41, 0x1c, 0x9f, 0xa0,
    0x70, 0x5d, 0xa2, 0xd5, 0xbf, 0x6e, 0xbb, 0x7f, 0xe5, 0x38, 0x3b, 0x43,
    0x56, 0x81, 0x50, 0xe7, 0xa4, 0x87, 0x16, 0x36, 0x71, 0x81, 0x7d, 0x63,
    0x87, 0x9a, 0x9a, 0xf7, 0x12, 0x89, 0xe4, 0x3b, 0x2b, 0x19, 0x7f, 0x7f,
    0x03, 0x19, 0x18, 0xb8, 0x75, 0x49, 0x9e, 0xfc, 0x6a, 0xc0, 0xff, 0xff,
    0x04, 0x00, 0x00, 0x00, 0x20, 0x00, 0x00, 0x00, 0x2b, 0x49, 0x00, 0x00,
    0x3b, 0xd7, 0x00, 0x00, 0x5c, 0xea, 0xff, 0xff, 0x0c, 0xdd, 0xff, 0xff,
    0x35, 0xdb, 0xff, 0xff, 0xb3, 0x1e, 0x00, 0x00, 0x03, 0xff, 0xff, 0xff,
    0xe8, 0xa5, 0xff, 0xff, 0x96, 0xc0, 0xff, 0xff, 0x04, 0x00, 0x00, 0x00,
    0x80, 0x04, 0x00, 0x00, 0xc5, 0x5e, 0x08, 0x05, 0x01, 0x5b, 0x15, 0x05,
    0xef, 0xf1, 0xf9, 0x2e, 0xb7, 0x21, 0xe1, 0xa5, 0x2d, 0xe6, 0xe1, 0x26,
    0x46, 0x03, 0xd3, 0x60, 0x26, 0x5b, 0x8f, 0x4d, 0x0d, 0x7f, 0x1e, 0x55,
    0x4a, 0x05, 0x35, 0x50, 0xbd, 0x31, 0xdc, 0x02, 0x2c, 0x99, 0xf9, 0x3c,
    0xe5, 0x84, 0xc1, 0x2f, 0x18, 0x77, 0xba, 0x35, 0xfd, 0xb5, 0x39, 0x90,
    0x16, 0x92, 0x26, 0xe7, 0xc9, 0x6b, 0xae, 0x56, 0x10, 0x4e, 0x26, 0x6c,
    0x2f, 0x1d, 0xe9, 0x66, 0x43, 0x07, 0xa0, 0xe8, 0xd6, 0xbd, 0xc0, 0x05,
    0x23, 0x25, 0xe2, 0xc9, 0x02, 0xb5, 0x95, 0x5f, 0x27, 0xea, 0x34, 0xdb,
    0xe7, 0xa1, 0xe5, 0x6f, 0x21, 0xf0, 0xea, 0xeb, 0x23, 0xdf, 0xee, 0xc0,
    0x4d, 0xb6, 0xf1, 0xd7, 0x0f, 0xd4, 0x18, 0x63, 0x3c, 0xac, 0x56, 0x52,
    0xca, 0xba, 0x59, 0x3d, 0x08, 0x01, 0xfe, 0xa8, 0xd8, 0xce, 0xe1, 0x4c,
    0x33, 0xe6, 0xf1, 0xd5, 0xd4, 0xbe, 0xb3, 0x64, 0xff, 0xf9, 0xc3, 0x06,
    0x21, 0x81, 0x25, 0x75, 0xb5, 0xd5, 0x3a, 0x24, 0x02, 0x15, 0x14, 0x5b,
    0x17, 0x45, 0xfe, 0x46, 0x57, 0x38, 0x1b, 0xe8, 0x14, 0xa8, 0x08, 0xf7,
    0xb9, 0xbc, 0x37, 0x53, 0x5a, 0x10, 0xec, 0x2a, 0x44, 0x4e, 0xf2, 0xd4,
    0xb3, 0xaa, 0xa3, 0xfa, 0x26, 0x21, 0x7f, 0x1e, 0xc0, 0xc5, 0x38, 0xba,
    0x00, 0x1c, 0x62, 0x91, 0xf1, 0xc2, 0xa9, 0x9c, 0xa1, 0x19, 0x45, 0xae,
    0x03, 0xb3, 0x22, 0x39, 0x5b, 0x36, 0xb8, 0xf2, 0x28, 0x3f, 0x99, 0x15,
    0x29, 0xfb, 0x12, 0xe1, 0x5a, 0x5a, 0xe8, 0x40, 0xe0, 0x3c, 0xcc, 0xb1,
    0xd1, 0xfb, 0x53, 0xc9, 0x0a, 0x57, 0x0f, 0x25, 0x20, 0x53, 0xdc, 0x07,
    0xf5, 0xb7, 0x81, 0x21, 0xac, 0xe7, 0xae, 0x06, 0xdf, 0x18, 0xe8, 0xae,
    0x0d, 0xf2, 0x45, 0x04, 0xb8, 0x41, 0x0b, 0x2d, 0x5e, 0x31, 0xef, 0x20,
    0x35, 0xf5, 0xf6, 0xf3, 0xcf, 0xbf, 0x3b, 0x19, 0xdf, 0xed, 0xb5, 0x19,
    0xb2, 0x1f, 0x31, 0x97, 0x99, 0xa6, 0x39, 0xca, 0xe5, 0xcd, 0xac, 0xde,
    0x47, 0x15, 0x28, 0xde, 0x01, 0x51, 0x47, 0x1e, 0xab, 0x1c, 0xe3, 0x3f,
    0xcb, 0xd5, 0xc4, 0x20, 0xbb, 0xf6, 0x55, 0x14, 0x0b, 0x1e, 0x29, 0x04,
    0x1f, 0xee, 0xd0, 0x10, 0xe4, 0x3f, 0xc7, 0xfb, 0xfd, 0x2f, 0xf7, 0x27,
    0xf7, 0x18, 0x3f, 0x0d, 0x07, 0x67, 0x43, 0x3d, 0xcc, 0x44, 0xf4, 0xd7,
    0xdf, 0xd2, 0xfd, 0x43, 0xe0, 0xb2, 0xe9, 0xa6, 0x34, 0xa8, 0x9b, 0xb3,
    0x29, 0xda, 0xf4, 0x50, 0xf5, 0x45, 0x26, 0x81, 0xa4, 0x25, 0x3c, 0xed,
    0xe2, 0x24, 0xe5, 0xd3, 0x10, 0x9d, 0x3a, 0x43, 0xaf, 0x40, 0x22, 0xb0,
    0xfb, 0x3d, 0x2f, 0xd7, 0x9d, 0x4b, 0xb2, 0xe1, 0x13, 0x33, 0x6b, 0xdc,
    0xd9, 0xe7, 0xb7, 0x49, 0xda, 0x39, 0xfa, 0x28, 0xc2, 0x05, 0x17, 0x44,
    0x4a, 0xc0, 0x2f, 0xcc, 0x6b, 0x16, 0x46, 0x0d, 0xcd, 0xf0, 0xc7, 0x11,
    0x4f, 0x13, 0x96, 0xce, 0xa6, 0xae, 0x15, 0x0d, 0x58, 0x81, 0xbf, 0x33,
    0x3f, 0xd8, 0xc2, 0xd3, 0x4d, 0x5d, 0xcf, 0xe2, 0xa1, 0x3a, 0x2a, 0xc4,
    0x6d, 0x5f, 0x55, 0xc4, 0x57, 0xa0, 0x88, 0x41, 0x27, 0xb1, 0x40, 0x1a,
    0x2f, 0x30, 0x54, 0xfa, 0xc1, 0xed, 0x8e, 0x38, 0x42, 0x92, 0xa5, 0xad,
    0xf4, 0x62, 0x20, 0x09, 0xf0, 0xcd, 0x3c, 0xa9, 0x60, 0xfe, 0x2a, 0x11,
    0x28, 0x2e, 0x2d, 0xc3, 0xeb, 0x1a, 0x92, 0xf5, 0x86, 0x33, 0xb0, 0x93,
    0x01, 0x05, 0x6d, 0x3f, 0x91, 0xee, 0x62, 0xbc, 0x7f, 0xd9, 0xec, 0x07,
    0xc5, 0xc5, 0xd1, 0xc5, 0x68, 0x43, 0x0c, 0xd3, 0x74, 0x58, 0xf8, 0xd5,
    0x5e, 0x94, 0x79, 0x9e, 0x50, 0xa8, 0x33, 0xae, 0x34, 0xce, 0x52, 0x55,
    0xb9, 0xb2, 0xa5, 0xe0, 0x7c, 0xca, 0x10, 0x8b, 0x33, 0x32, 0x18, 0x42,
    0xad, 0x9e, 0x49, 0x28, 0x81, 0x45, 0x36, 0x16, 0x3f, 0x5b, 0x3c, 0xee,
    0x26, 0xcc, 0x59, 0xf9, 0xe4, 0x85, 0xf1, 0x40, 0x01, 0xce, 0x6c, 0x92,
    0x75, 0xac, 0xca, 0x0c, 0x5a, 0x2a, 0x65, 0xf9, 0xb2, 0xe1, 0x63, 0x3c,
    0x51, 0x16, 0xc5, 0xf0, 0xde, 0x0b, 0xb8, 0x9f, 0x37, 0x2f, 0xd1, 0x96,
    0xb1, 0xd6, 0x65, 0x74, 0xbf, 0x6d, 0x09, 0x42, 0x01, 0xce, 0x15, 0x37,
    0xd3, 0xf9, 0x98, 0x2f, 0x81, 0xef, 0x37, 0x40, 0x08, 0xbf, 0x12, 0x30,
    0xc6, 0xd7, 0xab, 0xbe, 0x54, 0x2c, 0xb1, 0xae, 0xd5, 0xe2, 0x0e, 0x14,
    0x24, 0x55, 0xe6, 0x54, 0xb8, 0xec, 0x27, 0xe8, 0xa2, 0x43, 0xb9, 0xda,
    0xa9, 0xf8, 0x0c, 0xf8, 0xc0, 0x4d, 0xc6, 0x27, 0xc5, 0xbe, 0x74, 0xfb,
    0x04, 0xd5, 0x96, 0xca, 0x02, 0xc1, 0x24, 0xcd, 0xda, 0x4f, 0x00, 0xf2,
    0xfe, 0xb8, 0x4c, 0xe5, 0xe1, 0xcb, 0xfc, 0xeb, 0xa9, 0x31, 0xfe, 0xad,
    0xd5, 0x3e, 0x12, 0xf9, 0xa9, 0xf0, 0xa9, 0xec, 0x96, 0x4f, 0xc2, 0x2c,
    0xf2, 0xb3, 0xa4, 0x15, 0x0a, 0x95, 0xb5, 0xb9, 0xd8, 0x48, 0xc9, 0x2e,
    0xd4, 0x17, 0x1c, 0xbb, 0x32, 0xc4, 0x0f, 0x52, 0xbe, 0xba, 0xb4, 0x44,
    0xc2, 0x81, 0x43, 0xfb, 0x42, 0xd1, 0xde, 0x24, 0x8b, 0xdd, 0x83, 0x18,
    0xad, 0x2b, 0x31, 0xa7, 0x36, 0xb5, 0xf9, 0x40, 0x1d, 0xa9, 0x23, 0x41,
    0x55, 0x1a, 0x46, 0xdc, 0xc6, 0xdd, 0xc9, 0xa0, 0xe0, 0x6b, 0x0b, 0xc9,
    0xad, 0x59, 0x0a, 0xf6, 0x63, 0xe0, 0x4d, 0xda, 0x3e, 0x6c, 0xe6, 0x2d,
    0x5e, 0x18, 0x9a, 0xc3, 0x13, 0x51, 0xfe, 0x1c, 0x2b, 0xc7, 0x66, 0x4a,
    0x0b, 0x18, 0xef, 0x41, 0xcb, 0x95, 0xc5, 0x84, 0xb3, 0xfe, 0x0d, 0x9a,
    0x91, 0x16, 0x03, 0xa0, 0x4a, 0x81, 0xa2, 0x72, 0x4d, 0x51, 0x70, 0xe4,
    0x4f, 0xf0, 0x18, 0xe0, 0xbd, 0x0c, 0xb7, 0x76, 0xba, 0xa1, 0x96, 0x65,
    0x31, 0x5c, 0xba, 0x46, 0x10, 0x81, 0x41, 0xf2, 0x1a, 0x20, 0x6b, 0xa4,
    0x06, 0x27, 0xd4, 0xf7, 0x64, 0x0b, 0x3d, 0x0a, 0x4d, 0x0b, 0x06, 0xfd,
    0xee, 0x32, 0xf3, 0xba, 0x52, 0xdd, 0x60, 0x22, 0x5a, 0xcf, 0xfd, 0xc5,
    0x22, 0x0e, 0x04, 0xd8, 0x6b, 0xab, 0x1e, 0x5e, 0xba, 0xf6, 0x5c, 0xb7,
    0xf3, 0x3b, 0x5d, 0xe6, 0x22, 0xdb, 0x64, 0x33, 0xe9, 0x20, 0x04, 0xe8,
    0x5a, 0xcf, 0x19, 0xe1, 0xe2, 0x99, 0xdc, 0xbb, 0x3c, 0xfe, 0x33, 0xbc,
    0x30, 0x10, 0xe4, 0x02, 0xf7, 0xdc, 0x14, 0x43, 0xab, 0x8b, 0xec, 0xd7,
    0xcd, 0xe7, 0x9a, 0x7f, 0x01, 0xd5, 0x1a, 0x18, 0x4c, 0x62, 0xf1, 0x3e,
    0xf4, 0x28, 0x4e, 0xf1, 0xdd, 0x95, 0x10, 0x42, 0xf9, 0x23, 0x94, 0x27,
    0x3e, 0x09, 0x0f, 0xcc, 0x33, 0x14, 0xcf, 0x09, 0x51, 0xdc, 0x4b, 0x61,
    0x33, 0x57, 0x03, 0xc8, 0xcd, 0x56, 0xbc, 0xcb, 0xb4, 0x3d, 0x38, 0xb7,
    0x4b, 0x7e, 0x97, 0x18, 0xcb, 0xbf, 0x3d, 0x17, 0x2c, 0x54, 0xa1, 0xb5,
    0xe1, 0x61, 0x10, 0x48, 0x1e, 0xcd, 0x4d, 0x03, 0xf9, 0x6e, 0x59, 0x00,
    0xca, 0x14, 0x2a, 0xc6, 0xec, 0xf6, 0x26, 0x09, 0x06, 0xce, 0x03, 0x09,
    0x16, 0xe8, 0x53, 0x15, 0xdd, 0xfb, 0xe7, 0x1c, 0x19, 0x3f, 0xea, 0xf5,
    0xd9, 0xbb, 0x81, 0x18, 0x04, 0x41, 0xdf, 0x29, 0x96, 0x22, 0x0e, 0x18,
    0x2e, 0x4e, 0x41, 0x00, 0xff, 0xed, 0x1f, 0x18, 0xb4, 0x2f, 0xba, 0xe9,
    0x3c, 0x46, 0x1e, 0xcc, 0xe3, 0x36, 0xb6, 0xbc, 0x9f, 0xad, 0x27, 0x17,
    0xfa, 0xdc, 0xcd, 0xe9, 0x5a, 0xe3, 0x00, 0xd6, 0x70, 0x91, 0x1a, 0x4e,
    0xc4, 0x61, 0x9e, 0x46, 0x40, 0xd7, 0xf6, 0xe6, 0x4a, 0xe5, 0xf8, 0xd3,
    0x9e, 0x2c, 0xb7, 0xcb, 0x11, 0xde, 0x41, 0x22, 0xe3, 0xe8, 0xff, 0x9d,
    0xf1, 0xf8, 0x41, 0x39, 0x0e, 0x49, 0x3a, 0xed, 0xf9, 0x29, 0xcf, 0xff,
    0x6d, 0x33, 0xbc, 0xfc, 0xc1, 0xe1, 0xc8, 0xcd, 0x09, 0x00, 0x44, 0x1d,
    0xc0, 0x9c, 0x5a, 0x23, 0x46, 0x81, 0xdf, 0xe9, 0xe5, 0x46, 0xf6, 0xda,
    0x35, 0xd4, 0xf8, 0xd0, 0x10, 0x0d, 0x2f, 0x9f, 0x28, 0x1a, 0x54, 0x44,
    0x52, 0xa2, 0x0d, 0x5d, 0xb4, 0xfb, 0x18, 0x9f, 0x8f, 0xfd, 0x81, 0xcd,
    0x96, 0x8c, 0x78, 0xbf, 0x4e, 0x18, 0xa8, 0xaf, 0xae, 0xf9, 0xe8, 0xf0,
    0x8d, 0x90, 0x51, 0xcf, 0xa4, 0x02, 0x65, 0xce, 0x32, 0x35, 0x09, 0x3a,
    0xc2, 0x92, 0x3b, 0x09, 0xf7, 0x3a, 0xd0, 0x60, 0x0d, 0x35, 0x50, 0x34,
    0xf0, 0xad, 0x32, 0x12, 0x96, 0x5b, 0x46, 0x2d, 0x0b, 0xbf, 0x46, 0x33,
    0xb8, 0xf0, 0x1e, 0x46, 0x22, 0xc5, 0xff, 0xff, 0x04, 0x00, 0x00, 0x00,
    0x40, 0x00, 0x00, 0x00, 0x5e, 0xc1, 0xff, 0xff, 0x0d, 0x26, 0x00, 0x00,
    0xf2, 0xed, 0xff, 0xff, 0x27, 0x17, 0x00, 0x00, 0x41, 0xfb, 0xff, 0xff,
    0x7a, 0xef, 0xff, 0xff, 0x8f, 0x07, 0x00, 0x00, 0x7d, 0xf6, 0xff, 0xff,
    0xbc, 0x37, 0x00, 0x00, 0x7e, 0x4e, 0x00, 0x00, 0xd7, 0x06, 0x00, 0x00,
    0x5e, 0xd9, 0xff, 0xff, 0x9a, 0xe2, 0xff, 0xff, 0x48, 0xfa, 0xff, 0xff,
    0xec, 0x03, 0x00, 0x00, 0x08, 0x1a, 0x00, 0x00, 0x6e, 0xc5, 0xff, 0xff,
    0x04, 0x00, 0x00, 0x00, 0x00, 0x12, 0x00, 0x00, 0xe9, 0xfd, 0xb2, 0x5a,
    0x0f, 0x04, 0xc0, 0x99, 0xb3, 0x33, 0xfc, 0xf0, 0x51, 0xbb, 0x2e, 0xfe,
    0x41, 0x50, 0x58, 0x03, 0x04, 0x19, 0xf9, 0xd3, 0xe1, 0x7f, 0xe1, 0x02,
    0x57, 0xf7, 0x15, 0x2d, 0x23, 0x11, 0x71, 0xed, 0xdf, 0x50, 0x02, 0xf0,
    0x11, 0x12, 0x30, 0xf6, 0xe6, 0xca, 0x42, 0xa3, 0xb4, 0x4a, 0xf5, 0xa8,
    0xb1, 0xfc, 0xb9, 0xf5, 0x46, 0xce, 0x51, 0xa3, 0xc1, 0x92, 0x9a, 0x21,
    0x9a, 0xbf, 0x20, 0xce, 0xf0, 0x22, 0xa0, 0x5e, 0xfe, 0x58, 0xa5, 0xb5,
    0xad, 0x3e, 0xbe, 0xab, 0xc5, 0x25, 0xe8, 0xf7, 0xc1, 0x17, 0xd4, 0x36,
    0x54, 0x51, 0x3f, 0x52, 0x08, 0xd6, 0xdd, 0x0f, 0x98, 0xed, 0x9d, 0x04,
    0x97, 0xb1, 0x09, 0x44, 0x44, 0xdd, 0xe9, 0xa9, 0xed, 0x45, 0x00, 0xdf,
    0xc3, 0x64, 0xd8, 0x09, 0x0c, 0x89, 0x38, 0xcb, 0xfe, 0xf9, 0x5d, 0x18,
    0x47, 0xeb, 0x63, 0xc0, 0xfa, 0xf4, 0x12, 0xa1, 0x75, 0x14, 0x42, 0x03,
    0xb6, 0xe9, 0xd5, 0x2b, 0x08, 0x30, 0x0e, 0x4c, 0x0c, 0x19, 0xef, 0x43,
    0xdc, 0xcd, 0x07, 0xea, 0x1f, 0x27, 0x1c, 0x4c, 0x36, 0x2d, 0xf0, 0xe4,
    0xc3, 0x66, 0x22, 0x16, 0xed, 0x9d, 0xb4, 0xd1, 0x1d, 0x2f, 0xb8, 0x2c,
    0x13, 0x33, 0xe6, 0x57, 0xb2, 0xd5, 0x17, 0x34, 0xe3, 0x2b, 0x2b, 0x33,
    0x82, 0xd9, 0xd7, 0xf6, 0xd6, 0x16, 0x31, 0xb4, 0x37, 0xfa, 0x08, 0xb7,
    0x12, 0x36, 0xe8, 0x19, 0xb9, 0xed, 0x94, 0xf8, 0xcd, 0x10, 0x1d, 0xb6,
    0x4d, 0x3d, 0x5f, 0x3c, 0x0f, 0xef, 0x22, 0xa5, 0x88, 0x28, 0xa0, 0x00,
    0xf0, 0x14, 0xdd, 0xcc, 0xe0, 0x62, 0xbd, 0x1f, 0xae, 0x1a, 0x09, 0x0a,
    0x0a, 0xd9, 0xdb, 0xad, 0xd3, 0x4f, 0xc6, 0x81, 0xf3, 0xbc, 0x49, 0x1f,
    0xc0, 0xc4, 0x34, 0xc5, 0xf8, 0x1d, 0x27, 0xe0, 0xff, 0x4f, 0x26, 0x00,
    0xe1, 0xf1, 0x5a, 0x36, 0x1e, 0x21, 0xc6, 0x12, 0xf5, 0xe4, 0xde, 0x23,
    0xe5, 0x2d, 0xb4, 0xd5, 0x44, 0x2d, 0x50, 0xd4, 0x9d, 0xc5, 0x17, 0xba,
    0xe0, 0x98, 0x01, 0xbc, 0x21, 0x69, 0x21, 0xbc, 0x09, 0x14, 0xea, 0xf5,
    0x2f, 0xae, 0x23, 0xdb, 0x29, 0x29, 0xd7, 0x21, 0xb7, 0xda, 0xf5, 0xf2,
    0x34, 0x0b, 0x1d, 0x51, 0xc7, 0xe1, 0x2a, 0xda, 0xfd, 0x4e, 0x60, 0xcf,
    0x25, 0xb8, 0xea, 0xb9, 0x2a, 0xe7, 0x21, 0x32, 0xa8, 0xb2, 0xcb, 0x0e,
    0xbe, 0x30, 0x0f, 0x11, 0x4f, 0xc2, 0xfa, 0xde, 0x16, 0xdb, 0x1a, 0x12,
    0x61, 0x3c, 0x12, 0x55, 0xf9, 0x09, 0xdd, 0x4c, 0xfc, 0x29, 0xb8, 0xf5,
    0xd3, 0x2f, 0xb5, 0x45, 0x36, 0xc1, 0x1e, 0x4c, 0xc3, 0x58, 0xf8, 0x96,
    0x42, 0x08, 0xb2, 0x02, 0x48, 0x3e, 0xf0, 0xbc, 0x03, 0x09, 0x08, 0x1f,
    0xce, 0x49, 0xf6, 0xca, 0xc0, 0x3f, 0x28, 0x2f, 0x1c, 0x08, 0x3b, 0x3d,
    0xd2, 0xd9, 0x04, 0xba, 0xc6, 0xce, 0xba, 0x59, 0x02, 0x21, 0xce, 0xf2,
    0xbe, 0xb8, 0x53, 0xc5, 0xf9, 0xc0, 0x00, 0xd4, 0xf9, 0x0f, 0x22, 0xb0,
    0x57, 0x36, 0x2e, 0x0a, 0x02, 0xdc, 0xcb, 0xea, 0x49, 0x06, 0x81, 0xc1,
    0x50, 0xbc, 0x21, 0xc8, 0xbb, 0xc9, 0x00, 0xbc, 0x1c, 0xe3, 0x2b, 0x13,
    0x2e, 0xe1, 0xb9, 0xbd, 0x92, 0x1c, 0x7c, 0xe1, 0xc7, 0x1d, 0x2d, 0xa8,
    0x53, 0x21, 0xec, 0xb0, 0xb1, 0xe8, 0xa3, 0xae, 0x5d, 0xba, 0xc8, 0xf6,
    0x5b, 0xbd, 0xb2, 0x71, 0x0c, 0x46, 0x4c, 0xa8, 0x2e, 0x90, 0x24, 0x0c,
    0x48, 0xec, 0xb8, 0xb6, 0xb7, 0x7f, 0xce, 0x75, 0x2b, 0x14, 0x61, 0xce,
    0x7b, 0xe8, 0xb9, 0x2b, 0xed, 0x03, 0xcf, 0x38, 0x44, 0x34, 0xac, 0xd4,
    0xa0, 0x3a, 0x13, 0x45, 0x0b, 0x8d, 0x9d, 0x51, 0xcd, 0xe6, 0x45, 0xe0,
    0x4a, 0x04, 0xe9, 0x60, 0xaa, 0xf6, 0xa3, 0x1c, 0x02, 0x3e, 0x2b, 0xc6,
    0x14, 0xf8, 0xf1, 0xc5, 0x15, 0x57, 0xa6, 0xb8, 0x61, 0x00, 0x59, 0x00,
    0xf8, 0x21, 0xb3, 0x25, 0xfc, 0xe1, 0x16, 0xea, 0x5f, 0x17, 0xae, 0x13,
    0x61, 0xc1, 0x39, 0x18, 0xb9, 0xd9, 0xb0, 0x34, 0x2b, 0xd0, 0xac, 0xaa,
    0xf7, 0xeb, 0xff, 0x05, 0x14, 0x47, 0xf1, 0x8d, 0xf0, 0x76, 0xf9, 0xf7,
    0x47, 0xbb, 0x07, 0x1f, 0xb2, 0xfa, 0x29, 0x19, 0xb0, 0x0d, 0xdb, 0xf0,
    0x2a, 0xa7, 0x01, 0xc2, 0xff, 0xd8, 0xe1, 0xf4, 0x2b, 0x2e, 0x17, 0xfd,
    0xfb, 0xc5, 0xe8, 0xd9, 0x2a, 0xfd, 0xbe, 0x49, 0x20, 0x1c, 0xc8, 0xf0,
    0xd5, 0x47, 0x13, 0x2e, 0x30, 0xc8, 0xdd, 0x3a, 0xd4, 0xfe, 0xe5, 0xf0,
    0xd3, 0xa3, 0xf2, 0x0d, 0xf1, 0xe7, 0xe1, 0x33, 0x2b, 0x54, 0x1d, 0x33,
    0xe9, 0x04, 0x3d, 0xe7, 0xf4, 0xf0, 0xe7, 0x10, 0xeb, 0xc6, 0xc7, 0x39,
    0xc7, 0xfe, 0x30, 0xa7, 0x36, 0x14, 0x11, 0x24, 0xfb, 0xe3, 0xe4, 0x2f,
    0x10, 0x01, 0x50, 0x06, 0xfc, 0xce, 0xdb, 0x2d, 0x2d, 0xd0, 0x28, 0xe2,
    0x2f, 0x03, 0x1a, 0x28, 0xdd, 0xba, 0x1b, 0x1a, 0x41, 0x23, 0xea, 0x0c,
    0x4e, 0xcc, 0x27, 0xe0, 0x05, 0xeb, 0x0b, 0xc4, 0x0f, 0xd1, 0xe7, 0xe3,
    0x32, 0xac, 0x50, 0x34, 0x3e, 0xfd, 0x08, 0xd3, 0xce, 0x12, 0x10, 0xbb,
    0xcf, 0x1d, 0x20, 0x26, 0x40, 0xee, 0x04, 0x0d, 0xee, 0x06, 0x9c, 0x30,
    0xb5, 0xf3, 0xe6, 0x81, 0x24, 0xda, 0xcd, 0xe3, 0xe3, 0xf1, 0x09, 0xb1,
    0xc5, 0xde, 0xf4, 0x29, 0xff, 0x0f, 0x19, 0x2a, 0x26, 0xf0, 0x41, 0xe4,
    0xb4, 0xd8, 0x00, 0x01, 0x31, 0x6f, 0xf0, 0x38, 0xcd, 0x57, 0xe2, 0xdb,
    0x32, 0xd4, 0x1e, 0x2c, 0xc2, 0x01, 0xef, 0x2b, 0xc9, 0x43, 0x5c, 0x59,
    0x28, 0xd7, 0xdb, 0xb5, 0x55, 0x24, 0x2b, 0x50, 0xd1, 0xb6, 0x21, 0xae,
    0xdf, 0xf5, 0xce, 0x47, 0xc2, 0x40, 0xef, 0x4c, 0x31, 0x45, 0xca, 0xd2,
    0xff, 0x17, 0xdc, 0x10, 0x12, 0xfa, 0x0f, 0xe9, 0x22, 0x35, 0x2f, 0xad,
    0x23, 0x19, 0xd3, 0x03, 0xda, 0xff, 0xd3, 0x3e, 0xf3, 0xc8, 0x00, 0xd2,
    0x4a, 0xf8, 0x0b, 0x4f, 0x54, 0xed, 0xed, 0x05, 0xc8, 0xde, 0xb7, 0x24,
    0xca, 0x10, 0x1f, 0x06, 0x81, 0x43, 0xdb, 0x14, 0x16, 0x30, 0x43, 0xc5,
    0x1b, 0xb6, 0xe8, 0xa3, 0x50, 0x1f, 0x16, 0x3f, 0x0b, 0xf4, 0xd8, 0xd9,
    0x0f, 0x3c, 0xc7, 0x1f, 0xca, 0x50, 0x00, 0xf0, 0x3c, 0x0e, 0xf8, 0xfb,
    0xf8, 0xd4, 0xe0, 0xd2, 0xd2, 0xe8, 0xf3, 0x21, 0x03, 0xf4, 0x64, 0xd9,
    0x72, 0x0d, 0xe5, 0xbc, 0x02, 0x1f, 0xe8, 0x19, 0x5b, 0xbe, 0x54, 0xea,
    0x4b, 0x03, 0xf8, 0x42, 0x0a, 0x14, 0x81, 0x2f, 0x53, 0x03, 0xfb, 0xcb,
    0xf1, 0xf3, 0xde, 0x1e, 0xc1, 0x48, 0xbb, 0x5c, 0xf6, 0xe7, 0xe3, 0x1b,
    0x30, 0x2c, 0xfb, 0x9c, 0xea, 0xf0, 0xeb, 0x17, 0x03, 0xc9, 0x20, 0x53,
    0x6c, 0xec, 0xde, 0xc0, 0x47, 0xca, 0xde, 0x14, 0x2e, 0xf9, 0xbf, 0x46,
    0x28, 0x07, 0x4a, 0xe6, 0x4a, 0xa4, 0x11, 0x0b, 0x73, 0xfa, 0x13, 0xc3,
    0xe3, 0x04, 0xd5, 0x3c, 0x2a, 0x22, 0x3d, 0xfd, 0xee, 0xc8, 0x3b, 0xd3,
    0xea, 0x1f, 0xd6, 0x31, 0xc0, 0xd2, 0xd5, 0xf0, 0x1d, 0xfc, 0x01, 0x05,
    0x16, 0xa7, 0x12, 0xd8, 0x46, 0x5b, 0x4c, 0x9c, 0xd8, 0x28, 0x1d, 0xef,
    0x9f, 0xad, 0x12, 0x06, 0x36, 0xd7, 0xff, 0x54, 0xa9, 0x47, 0x4e, 0xe1,
    0xa8, 0xbc, 0x50, 0x44, 0x9a, 0x02, 0x05, 0x37, 0x13, 0x9f, 0x59, 0x27,
    0x01, 0x26, 0x47, 0xea, 0x43, 0xde, 0xe1, 0xc3, 0xbf, 0x66, 0x26, 0x59,
    0xc0, 0x24, 0xbb, 0xd4, 0x0d, 0x13, 0xfb, 0x10, 0x1d, 0x60, 0xb9, 0x1e,
    0x9b, 0x3b, 0x60, 0x17, 0x12, 0xe8, 0x48, 0xc9, 0xd9, 0xaa, 0x7f, 0xf8,
    0x48, 0x43, 0x0d, 0x19, 0xa9, 0x97, 0x17, 0xec, 0x15, 0xa9, 0x41, 0xfd,
    0x38, 0xc0, 0x0b, 0x09, 0x0d, 0x71, 0xcb, 0x03, 0xee, 0xc8, 0xaf, 0x25,
    0x11, 0x44, 0xf9, 0xd8, 0xf8, 0x19, 0xfd, 0x0e, 0x38, 0xbe, 0xf0, 0x23,
    0xf4, 0x63, 0xd1, 0xda, 0xd7, 0xcf, 0x66, 0x96, 0x50, 0x36, 0xd3, 0x51,
    0x1e, 0x38, 0x29, 0x16, 0x32, 0xcd, 0x2e, 0xcf, 0xaa, 0x47, 0xae, 0xd0,
    0xc6, 0xf1, 0xae, 0x16, 0x54, 0xb7, 0xc5, 0x0c, 0x58, 0xd2, 0xfe, 0xc6,
    0xa2, 0x60, 0x46, 0xe2, 0xc5, 0xab, 0x31, 0xea, 0xec, 0xe6, 0x32, 0x0d,
    0x07, 0x19, 0x56, 0xf3, 0xd5, 0x19, 0x4b, 0xd7, 0xca, 0x38, 0x35, 0xbd,
    0x1e, 0x49, 0xbb, 0xf7, 0x00, 0xe6, 0x30, 0x11, 0x20, 0x0a, 0x8b, 0xd0,
    0x32, 0xf9, 0xbc, 0x98, 0x3a, 0x3f, 0xe0, 0x70, 0x88, 0x37, 0xf0, 0xb0,
    0xea, 0xc0, 0xcd, 0xda, 0x2a, 0x63, 0x37, 0xe0, 0x00, 0xa1, 0x10, 0x2d,
    0xfa, 0xef, 0x01, 0x17, 0xe7, 0xc6, 0x1b, 0x0f, 0xa8, 0xdb, 0x20, 0xda,
    0xf6, 0xee, 0x5c, 0xab, 0x1d, 0x06, 0x3b, 0xbc, 0x0c, 0x0b, 0xdf, 0xe8,
    0x11, 0xf5, 0xba, 0x12, 0x12, 0x4b, 0xcf, 0x87, 0x81, 0x00, 0x19, 0xb4,
    0x49, 0x19, 0x19, 0xd5, 0x62, 0x47, 0x21, 0x6d, 0xbb, 0xcd, 0x18, 0xe3,
    0x43, 0xda, 0xd3, 0x39, 0x3e, 0xf2, 0xea, 0xf3, 0xc0, 0x28, 0xb5, 0xb4,
    0xbd, 0x20, 0x35, 0x00, 0xcd, 0xb3, 0x1f, 0x3e, 0xeb, 0x93, 0x1a, 0xe4,
    0x17, 0xe6, 0xb4, 0xfb, 0x57, 0xb5, 0xe2, 0xb2, 0xce, 0x03, 0x04, 0xff,
    0x00, 0x23, 0xd3, 0x22, 0xc3, 0x4e, 0x90, 0xd6, 0x92, 0x06, 0xd5, 0xbf,
    0xcf, 0xfa, 0xaf, 0x3a, 0x24, 0xc8, 0xe6, 0xa2, 0x91, 0xfa, 0xaa, 0xef,
    0xa5, 0x36, 0xd1, 0x07, 0xda, 0x21, 0x11, 0x61, 0xb9, 0x2b, 0xbc, 0x25,
    0xaa, 0x3c, 0xeb, 0xfa, 0x41, 0xd9, 0xf5, 0x91, 0x0f, 0x40, 0x00, 0x5b,
    0x01, 0x00, 0xd7, 0x20, 0x65, 0xe0, 0x5b, 0xf1, 0xec, 0xe7, 0xa7, 0xf8,
    0x25, 0x4f, 0xfd, 0xdf, 0xc9, 0x12, 0x94, 0xd8, 0xec, 0x31, 0xf0, 0xc1,
    0xf6, 0x55, 0xd3, 0x81, 0xb6, 0xa6, 0x08, 0x24, 0x58, 0x28, 0x2c, 0xf1,
    0xd7, 0xed, 0x22, 0x5c, 0xe7, 0x4e, 0x2b, 0x13, 0xc3, 0xc2, 0xcb, 0xfb,
    0xaf, 0xd3, 0xd8, 0x2a, 0xa0, 0x4d, 0x16, 0xc0, 0x48, 0xfc, 0x3d, 0x98,
    0x0b, 0x9e, 0x07, 0x45, 0x35, 0x3e, 0xf9, 0x1f, 0xdf, 0x03, 0x45, 0xb2,
    0xd0, 0x03, 0xab, 0xf2, 0x3a, 0x9a, 0xc6, 0xb4, 0x2a, 0x1a, 0x0e, 0xcf,
    0x2a, 0x33, 0x65, 0xba, 0x41, 0xa8, 0x5a, 0x4c, 0xfa, 0x10, 0xe5, 0x0d,
    0x03, 0x5b, 0x34, 0x07, 0xe7, 0x23, 0xc5, 0xbc, 0xfa, 0x11, 0x43, 0xd6,
    0xed, 0xad, 0x5f, 0x1f, 0xf9, 0x66, 0xec, 0x12, 0xc9, 0x1a, 0xd9, 0xd6,
    0xdd, 0x60, 0xcc, 0xf7, 0x3e, 0xb3, 0xc3, 0x22, 0xd9, 0xef, 0x1f, 0x76,
    0xed, 0x16, 0xc9, 0x72, 0x06, 0xae, 0x60, 0xd3, 0xf0, 0x18, 0x55, 0xdd,
    0x24, 0x44, 0xad, 0xfb, 0x01, 0x49, 0x50, 0x02, 0xc9, 0xf0, 0xdd, 0x36,
    0x42, 0x4a, 0x3d, 0x21, 0x2b, 0xdd, 0x1e, 0x1e, 0xc4, 0x16, 0x03, 0xcb,
    0xbc, 0x0b, 0xcb, 0x04, 0xbc, 0xb9, 0x2d, 0xd7, 0x21, 0x06, 0x30, 0x37,
    0x09, 0xe9, 0x15, 0xe9, 0x46, 0xf5, 0xc2, 0xc0, 0xb8, 0x3f, 0xcd, 0xc9,
    0xbe, 0xd2, 0x24, 0xe3, 0xb1, 0x2a, 0xc3, 0xae, 0x37, 0xe7, 0xcf, 0x72,
    0x06, 0xcf, 0xc5, 0xde, 0x15, 0x8e, 0x03, 0x45, 0xfb, 0xae, 0xce, 0xaf,
    0x14, 0xc6, 0x14, 0x16, 0xf8, 0xda, 0x30, 0x5c, 0x2b, 0x81, 0xa4, 0xe1,
    0x20, 0xa1, 0x49, 0xfb, 0x5f, 0xdd, 0x22, 0xc5, 0xe9, 0xd0, 0x25, 0xfa,
    0x60, 0x48, 0x2d, 0x18, 0x30, 0x0a, 0x3c, 0x01, 0xd6, 0x1a, 0x19, 0x4d,
    0xdc, 0x2f, 0xf4, 0x06, 0xed, 0x51, 0xb4, 0xe6, 0xcd, 0x29, 0xcf, 0x17,
    0x0d, 0x35, 0x3b, 0xe4, 0xe3, 0xaf, 0xac, 0xfb, 0x08, 0xf9, 0xeb, 0xdd,
    0x42, 0xbf, 0x66, 0xd8, 0x3b, 0xae, 0x30, 0x14, 0x32, 0x9a, 0xbf, 0xe8,
    0x35, 0x04, 0x05, 0xd4, 0x09, 0xac, 0xc4, 0xb4, 0x65, 0x07, 0x40, 0xf0,
    0x33, 0xbc, 0x1d, 0xcf, 0xb0, 0xb1, 0xe1, 0x5e, 0x1a, 0xbc, 0x23, 0xd3,
    0xbb, 0xf4, 0x99, 0x2b, 0xce, 0xe3, 0x44, 0x02, 0xe0, 0xc7, 0xe7, 0xe8,
    0x14, 0x06, 0xca, 0x5d, 0x59, 0x55, 0x46, 0x0f, 0x23, 0x1b, 0x7f, 0x14,
    0x33, 0x05, 0xe9, 0x44, 0x17, 0xf1, 0x0e, 0x24, 0x4b, 0xa9, 0xdb, 0x5a,
    0xc0, 0x40, 0xa4, 0x48, 0xf5, 0xed, 0xe5, 0x28, 0x53, 0xa1, 0xe5, 0xa7,
    0xaa, 0xe8, 0x17, 0x1c, 0x3f, 0x10, 0x59, 0x23, 0x54, 0x1b, 0x8c, 0x18,
    0xf7, 0x0b, 0xae, 0xb4, 0xd1, 0x2c, 0x41, 0xac, 0x19, 0xbd, 0xe1, 0x6b,
    0x24, 0xf4, 0x49, 0xf7, 0xd1, 0xb0, 0x66, 0x47, 0x4a, 0x19, 0xf7, 0xf8,
    0x3a, 0x98, 0x43, 0x6d, 0x2b, 0x13, 0xcb, 0xdf, 0x1b, 0x38, 0xd9, 0xd2,
    0x9d, 0xd8, 0xa6, 0x0f, 0xd2, 0xd1, 0x46, 0x51, 0xcd, 0xd6, 0x85, 0xe4,
    0xe6, 0x19, 0xe8, 0xe5, 0xdf, 0x44, 0x06, 0xe1, 0x54, 0xba, 0x7f, 0xce,
    0xa9, 0x32, 0xd4, 0x09, 0xce, 0xf8, 0x55, 0x40, 0x19, 0x06, 0xce, 0xbe,
    0xa7, 0xd0, 0xc8, 0x05, 0xcc, 0x85, 0xc7, 0xac, 0xc5, 0x6e, 0xe5, 0xc3,
    0x50, 0x47, 0xe0, 0x46, 0xa1, 0xac, 0x52, 0x0c, 0x07, 0xe1, 0x54, 0x19,
    0xd4, 0x3c, 0x21, 0x5c, 0x5a, 0xc5, 0x02, 0xa0, 0x00, 0xfe, 0x17, 0x3b,
    0x45, 0x0f, 0x35, 0xb9, 0x4f, 0xb8, 0x7c, 0xe5, 0x31, 0x20, 0x16, 0x32,
    0xfc, 0xdf, 0x1d, 0x8e, 0xaf, 0xe1, 0xb2, 0xcf, 0xcd, 0xb9, 0x93, 0xd8,
    0x2e, 0xb8, 0x10, 0xc2, 0xcd, 0x37, 0x11, 0xdb, 0x50, 0xb1, 0x45, 0xa6,
    0x1a, 0x43, 0xd4, 0x97, 0xc8, 0xb7, 0x14, 0xa3, 0x0b, 0xa8, 0x2c, 0xfa,
    0x76, 0x42, 0xd9, 0x49, 0xdf, 0xe4, 0x26, 0x99, 0xed, 0x3a, 0xd3, 0xcd,
    0x62, 0x2b, 0xb8, 0xed, 0xe2, 0x12, 0xb4, 0x4f, 0xbe, 0x47, 0x9f, 0xd8,
    0x3a, 0xf7, 0x53, 0x08, 0xdc, 0x29, 0xea, 0xa5, 0x2b, 0x5d, 0xac, 0xb8,
    0xfc, 0xe8, 0x0e, 0x99, 0xfc, 0x2a, 0xb4, 0x99, 0x15, 0x95, 0xe3, 0x0b,
    0x0e, 0x1e, 0xfa, 0x3d, 0xcc, 0x2b, 0xa0, 0x32, 0xf4, 0xf6, 0x21, 0x9f,
    0x1c, 0x0b, 0x4a, 0x20, 0x0f, 0xdb, 0x59, 0x42, 0x49, 0x3d, 0x5c, 0xbb,
    0x0f, 0x26, 0x83, 0xab, 0x2a, 0x9c, 0x4f, 0xa3, 0xe2, 0xd7, 0x4f, 0xfd,
    0x6b, 0xce, 0xf7, 0x45, 0xdf, 0x1a, 0xf3, 0xd4, 0x81, 0xfe, 0x36, 0xf0,
    0x4e, 0x76, 0xfe, 0x5f, 0x42, 0xaf, 0x23, 0x18, 0x58, 0x1c, 0xfa, 0x2f,
    0xc9, 0xbe, 0xd9, 0x19, 0xaa, 0x46, 0x10, 0x2c, 0x0a, 0x33, 0x3d, 0xde,
    0x45, 0xaa, 0xcd, 0xf6, 0x2e, 0x9c, 0x46, 0x57, 0xd5, 0xef, 0x4d, 0xe0,
    0x31, 0x16, 0x18, 0xa1, 0x06, 0xf9, 0xbc, 0x2b, 0x17, 0xab, 0xb0, 0x42,
    0xe8, 0xcb, 0xec, 0xca, 0x58, 0x42, 0x16, 0xe2, 0x16, 0x0b, 0xe6, 0xd6,
    0x78, 0xdf, 0xb6, 0x54, 0x0e, 0x3e, 0x44, 0x1a, 0xa2, 0x2a, 0xeb, 0xa8,
    0x1b, 0x9b, 0x0c, 0xb1, 0x5b, 0x13, 0xae, 0x41, 0x44, 0x21, 0x55, 0x02,
    0x95, 0x12, 0x07, 0xa3, 0x53, 0xb9, 0xb2, 0xcb, 0x2e, 0x97, 0x1d, 0x45,
    0xf5, 0x47, 0x81, 0xc9, 0xc8, 0x36, 0xd6, 0x09, 0xe9, 0xcc, 0xbb, 0xf7,
    0xbd, 0xba, 0x2e, 0x3d, 0xe5, 0x1d, 0xba, 0x0e, 0xc2, 0x30, 0x33, 0x46,
    0x9e, 0x8e, 0xb3, 0xed, 0x17, 0x20, 0xd6, 0x78, 0xea, 0x30, 0xf8, 0x10,
    0x42, 0x44, 0x47, 0xf2, 0xd5, 0x20, 0xb5, 0x75, 0xf7, 0x37, 0xe8, 0x21,
    0xd8, 0xa7, 0xb9, 0xe3, 0x33, 0x56, 0x1d, 0xcc, 0xfb, 0x23, 0x2a, 0x15,
    0xcd, 0x57, 0x84, 0x42, 0x41, 0x40, 0xb0, 0x0b, 0x0d, 0x49, 0xf9, 0xdd,
    0xb1, 0xee, 0xcf, 0x42, 0x08, 0x5d, 0xfc, 0xb9, 0x92, 0xb2, 0xe7, 0x96,
    0xde, 0x1c, 0xd7, 0x3e, 0xf3, 0x38, 0x2d, 0x27, 0x2b, 0x62, 0x21, 0xc9,
    0xf9, 0xf1, 0xf9, 0x24, 0xd9, 0x04, 0xc5, 0xcc, 0x18, 0xb9, 0xe4, 0xc8,
    0xf0, 0x55, 0xae, 0xd9, 0xde, 0xe4, 0x9f, 0x0a, 0x3a, 0x1a, 0x30, 0xc7,
    0xb4, 0x0d, 0xd8, 0x26, 0x27, 0x2c, 0xec, 0xba, 0x1f, 0xc9, 0xc0, 0x9c,
    0xcf, 0x08, 0xf4, 0xfc, 0xe1, 0xbe, 0x23, 0x02, 0xda, 0x04, 0xef, 0x24,
    0x60, 0x39, 0x38, 0xb4, 0xca, 0xdb, 0xe1, 0xf3, 0xeb, 0xde, 0x4e, 0x23,
    0xc7, 0x29, 0xd8, 0x08, 0x02, 0x30, 0x3a, 0x3e, 0xc9, 0xc8, 0xd4, 0xee,
    0x3d, 0x25, 0x4f, 0xd2, 0x39, 0x04, 0xdd, 0x68, 0x47, 0xcb, 0x1f, 0x0d,
    0xf1, 0x12, 0xeb, 0x06, 0x18, 0xe2, 0x13, 0x90, 0xe7, 0xca, 0x01, 0xa1,
    0x58, 0x18, 0xf5, 0xee, 0xa7, 0x14, 0x03, 0x2b, 0xe9, 0xe1, 0x13, 0xfd,
    0x07, 0x0b, 0xc3, 0x09, 0xf7, 0xdb, 0x06, 0x07, 0xb7, 0x35, 0x15, 0x16,
    0xf2, 0x10, 0x17, 0xe4, 0x1a, 0x23, 0x0a, 0x36, 0xf6, 0xe3, 0x0d, 0x20,
    0x37, 0x12, 0x19, 0xdd, 0xfc, 0xe6, 0xe0, 0x95, 0xf7, 0xc9, 0x16, 0xff,
    0xf0, 0xe2, 0x21, 0xfd, 0xdb, 0xf7, 0xbb, 0xea, 0x33, 0xf8, 0xe9, 0x8d,
    0xbc, 0x30, 0xc1, 0x17, 0xb8, 0xb7, 0x12, 0x0d, 0xcd, 0xba, 0xf3, 0xca,
    0xd6, 0xf6, 0x9c, 0xf9, 0xce, 0xf3, 0xd3, 0xf6, 0xfb, 0xdb, 0x12, 0x24,
    0xd9, 0xef, 0xde, 0x2f, 0x23, 0x03, 0xef, 0x81, 0xe7, 0x14, 0x3b, 0x17,
    0x2f, 0x49, 0x5d, 0x34, 0x56, 0x4a, 0x1b, 0x52, 0xe6, 0x44, 0x19, 0x47,
    0xf3, 0xf7, 0xaa, 0xc7, 0x1a, 0xf9, 0x1b, 0xe4, 0x62, 0xf6, 0x48, 0xe6,
    0x14, 0x06, 0xfa, 0x38, 0x64, 0x23, 0x2d, 0x37, 0xaf, 0xfb, 0xff, 0x03,
    0x2f, 0x43, 0xe1, 0x36, 0xea, 0xb1, 0x04, 0xd4, 0x9c, 0xc4, 0x36, 0xc5,
    0x27, 0xa1, 0x47, 0xf2, 0xcc, 0x40, 0x27, 0x07, 0xd3, 0xe8, 0xb5, 0x3e,
    0x00, 0xaa, 0xc3, 0x32, 0xbe, 0xd3, 0x1a, 0xe9, 0x1b, 0xd2, 0x0e, 0x09,
    0x1e, 0xc8, 0xfa, 0x03, 0xe6, 0xb8, 0x32, 0x29, 0xaf, 0x02, 0x0b, 0xfc,
    0xcf, 0x0b, 0xfa, 0xd8, 0x3d, 0xba, 0xf1, 0xe7, 0xf8, 0x41, 0xba, 0xc7,
    0xe1, 0xc3, 0x0b, 0xee, 0xff, 0x07, 0x56, 0xc3, 0xec, 0x03, 0xfb, 0x2a,
    0x12, 0x2c, 0xcf, 0xc5, 0x34, 0xc7, 0x09, 0xb0, 0xda, 0xff, 0xfe, 0x28,
    0x9f, 0xe1, 0x30, 0xf8, 0x25, 0xb9, 0x33, 0x1c, 0xd0, 0x2d, 0xc0, 0xad,
    0x39, 0x7f, 0xe2, 0xb3, 0x14, 0xb3, 0xb8, 0x15, 0x20, 0xab, 0x2d, 0xa3,
    0xe5, 0x03, 0x44, 0x3a, 0xe0, 0xd1, 0xff, 0xfb, 0xeb, 0x12, 0xbc, 0xc5,
    0xf2, 0xa3, 0x2f, 0xf7, 0x0b, 0x40, 0xe2, 0xc0, 0x60, 0x3c, 0x7f, 0x76,
    0x55, 0x2b, 0xed, 0x07, 0xb8, 0x46, 0x3f, 0x12, 0xfb, 0x45, 0xd9, 0x04,
    0x54, 0xd0, 0xfd, 0x4d, 0xc9, 0xda, 0x5f, 0x65, 0x1c, 0xab, 0x1f, 0x44,
    0xfa, 0xce, 0x12, 0x22, 0xcc, 0xd6, 0xce, 0x05, 0xec, 0xfb, 0x22, 0x1f,
    0x42, 0xdf, 0xff, 0x2d, 0xb1, 0x1b, 0xcf, 0x52, 0x2d, 0xe7, 0xe0, 0xc8,
    0xbd, 0x9b, 0x2c, 0x07, 0xef, 0x08, 0x0e, 0x29, 0xbe, 0xcd, 0x08, 0x4b,
    0xc3, 0x2e, 0x26, 0x43, 0x41, 0x2b, 0x01, 0xce, 0x0b, 0x28, 0x9e, 0x44,
    0xb0, 0x04, 0xea, 0x1b, 0x06, 0x3b, 0xfd, 0x79, 0x17, 0xf4, 0xf5, 0xc1,
    0x42, 0xda, 0xe2, 0x03, 0x3f, 0xe3, 0x46, 0x16, 0x36, 0x3b, 0xbe, 0x07,
    0x38, 0x03, 0x49, 0x06, 0xbe, 0xe9, 0x3a, 0xcf, 0xec, 0xfd, 0xa5, 0xbc,
    0x3f, 0x47, 0xf3, 0x5b, 0x38, 0x2b, 0xc9, 0xd5, 0xe5, 0x07, 0x61, 0x09,
    0xc6, 0xb5, 0x37, 0x6a, 0xea, 0x1f, 0x53, 0xf9, 0xf0, 0x2e, 0xb5, 0xd9,
    0xb1, 0x15, 0x35, 0xe1, 0x39, 0x40, 0xe7, 0x1a, 0x25, 0xe1, 0xce, 0x2a,
    0x10, 0x07, 0xdc, 0xc1, 0x4c, 0x30, 0xc9, 0x23, 0x50, 0xeb, 0xd3, 0xf7,
    0x3a, 0xbd, 0x19, 0xc0, 0x6c, 0x01, 0x1b, 0xc2, 0x07, 0x23, 0xfd, 0x4d,
    0x3a, 0x2d, 0x6c, 0xd4, 0xcd, 0x2b, 0x39, 0xf2, 0x03, 0xe6, 0xbb, 0xa0,
    0xb2, 0x4d, 0x19, 0x3d, 0xab, 0x22, 0xee, 0xe6, 0x2a, 0xc7, 0xe6, 0x3b,
    0xe9, 0xf3, 0x00, 0x0a, 0xb5, 0xa6, 0xc4, 0x54, 0x13, 0xb9, 0x4c, 0xfb,
    0x42, 0x15, 0xe4, 0xf5, 0xb8, 0x43, 0x4b, 0x73, 0x01, 0x1d, 0xe2, 0xb4,
    0xdf, 0xe6, 0xf7, 0xb8, 0xda, 0x10, 0xbb, 0xe2, 0x19, 0x06, 0x1a, 0x3c,
    0x0b, 0x08, 0x13, 0x16, 0x81, 0xd7, 0xf0, 0x0d, 0x4a, 0xbe, 0xf5, 0x21,
    0xfd, 0xa2, 0xfb, 0x49, 0x08, 0xfc, 0x08, 0x24, 0xb5, 0x47, 0xe9, 0xcd,
    0x4a, 0x08, 0xd2, 0xda, 0xe3, 0xbf, 0xfb, 0x14, 0x2e, 0xed, 0xfd, 0xaf,
    0xb0, 0x20, 0xdc, 0x3b, 0xd2, 0x49, 0xbc, 0x2f, 0x43, 0x27, 0x1c, 0x2b,
    0x2f, 0x26, 0x29, 0xc7, 0x2c, 0x0a, 0xc4, 0xdd, 0xca, 0xd3, 0x99, 0x13,
    0xf5, 0xd7, 0x44, 0xfa, 0x1a, 0x81, 0xf9, 0xa1, 0x1e, 0x2c, 0x2a, 0xe4,
    0xc8, 0x27, 0xb7, 0xe0, 0x06, 0xd8, 0xbd, 0xd9, 0xe6, 0x29, 0x9e, 0xe7,
    0x17, 0x12, 0x33, 0x58, 0x5d, 0x71, 0xfc, 0xaa, 0x90, 0x56, 0xe7, 0x6d,
    0xe5, 0x2d, 0x16, 0x49, 0xad, 0x43, 0xf9, 0x10, 0xe5, 0xfc, 0x0c, 0x71,
    0x32, 0x2f, 0x17, 0x93, 0xde, 0x1d, 0x23, 0x5f, 0x42, 0x3f, 0xe4, 0xe7,
    0x21, 0x37, 0xbc, 0xb1, 0x89, 0xab, 0xf0, 0x1f, 0xdd, 0xdd, 0xac, 0xeb,
    0x01, 0x1a, 0x61, 0xb2, 0x5a, 0x08, 0x9e, 0x08, 0xa7, 0x34, 0x39, 0x2a,
    0xe0, 0x1f, 0xb5, 0xe5, 0xbf, 0x27, 0x36, 0xee, 0x26, 0xf0, 0xef, 0xf3,
    0xcb, 0x1f, 0x1b, 0x26, 0xe3, 0x17, 0xc4, 0xa2, 0x4e, 0x0b, 0x51, 0xad,
    0xcc, 0x4e, 0xaf, 0xbf, 0xf1, 0x31, 0xbc, 0xf1, 0xe3, 0x37, 0x31, 0x01,
    0xc3, 0x45, 0x38, 0x13, 0xdf, 0x1f, 0xed, 0x1f, 0xb7, 0x04, 0x4c, 0xf7,
    0x0b, 0x28, 0x0f, 0x01, 0xb9, 0x10, 0xe5, 0xbf, 0x9e, 0xd7, 0xba, 0x3c,
    0x46, 0x35, 0x02, 0x3f, 0xf6, 0x48, 0x2c, 0x23, 0xd0, 0xdd, 0x38, 0xe3,
    0xcf, 0x48, 0x32, 0x64, 0xda, 0x23, 0x44, 0xb4, 0x34, 0x40, 0x9b, 0xcb,
    0xbd, 0x3e, 0x38, 0x01, 0x28, 0xfd, 0xab, 0xf1, 0x23, 0x23, 0xc2, 0x8d,
    0xe5, 0x14, 0xbf, 0xd2, 0x40, 0x38, 0xd0, 0x97, 0x8e, 0x43, 0xfa, 0x13,
    0x58, 0xc3, 0xdc, 0xaf, 0x30, 0x04, 0xe1, 0xbd, 0xb3, 0xfe, 0x18, 0xe0,
    0xc8, 0xd9, 0xbc, 0xf6, 0xa5, 0x11, 0xf2, 0xec, 0x28, 0xc5, 0x0c, 0xc4,
    0xca, 0xdd, 0xf9, 0x2f, 0x58, 0x14, 0xb3, 0x3f, 0x0e, 0x3c, 0xbb, 0xcc,
    0xce, 0xd0, 0x17, 0x58, 0x4f, 0xb5, 0x1d, 0xe2, 0x15, 0x81, 0x15, 0xf3,
    0x04, 0xd5, 0x08, 0xa8, 0xce, 0xf7, 0x5c, 0xe2, 0xfd, 0xe7, 0xde, 0xfd,
    0x0d, 0x10, 0xef, 0xb5, 0x06, 0x07, 0x30, 0x9b, 0x14, 0xe8, 0x4f, 0x22,
    0xe2, 0x22, 0xd8, 0xd5, 0x07, 0x21, 0x17, 0x1e, 0x2b, 0x21, 0xcb, 0x0d,
    0x35, 0xc6, 0x08, 0x09, 0x34, 0x3f, 0x3b, 0xd6, 0xcb, 0x24, 0xf2, 0xfe,
    0x59, 0xde, 0x28, 0x44, 0xdd, 0xeb, 0x26, 0xdc, 0xb8, 0x28, 0xbe, 0x13,
    0xdf, 0x0d, 0x29, 0xdb, 0xae, 0xf8, 0x06, 0xd4, 0x4f, 0x24, 0x35, 0x2d,
    0xfb, 0xf9, 0x2f, 0x0e, 0x34, 0xb7, 0xfd, 0x06, 0xdd, 0xd7, 0xff, 0xd2,
    0xed, 0xff, 0xf6, 0x63, 0xe8, 0xf1, 0xfe, 0xd5, 0xb9, 0xa4, 0x1b, 0x43,
    0x02, 0xd0, 0x2a, 0x1c, 0xd6, 0xc8, 0x08, 0xc6, 0xed, 0xe7, 0x14, 0xab,
    0x2d, 0xe9, 0x1b, 0xef, 0x1d, 0x56, 0x02, 0x7f, 0x66, 0x2f, 0xd2, 0xcb,
    0xa7, 0xf7, 0x3a, 0xc7, 0xe8, 0x03, 0x36, 0xf3, 0x62, 0xdd, 0xfb, 0x50,
    0x24, 0xcb, 0x22, 0xfb, 0xb1, 0x1f, 0x2e, 0xbc, 0x44, 0xee, 0x11, 0xff,
    0xd5, 0x3f, 0xec, 0xe2, 0xe1, 0x4a, 0x2d, 0xe6, 0x2b, 0xf5, 0xfb, 0xee,
    0x0a, 0xd6, 0x0e, 0x12, 0xd1, 0xf4, 0xee, 0xcc, 0x33, 0x4b, 0x97, 0x27,
    0xf8, 0x81, 0xf2, 0x38, 0x04, 0xf0, 0xb5, 0x9b, 0xb8, 0x09, 0xe6, 0xe0,
    0x08, 0x1c, 0xb4, 0x1e, 0x38, 0xeb, 0x9f, 0xe7, 0xec, 0xb1, 0x20, 0xff,
    0xec, 0x26, 0xad, 0x9a, 0x2a, 0x24, 0x34, 0x06, 0xe3, 0x98, 0xe7, 0xb0,
    0xce, 0xf0, 0xe6, 0xb3, 0x44, 0x0c, 0x0a, 0xa1, 0xbc, 0xf5, 0xcc, 0x29,
    0x22, 0xb3, 0x31, 0x1c, 0xf8, 0xac, 0xba, 0xf6, 0xb3, 0x25, 0xf8, 0xf8,
    0xf3, 0xfa, 0x05, 0xfb, 0x16, 0x1a, 0xda, 0x4c, 0x5d, 0xf9, 0x06, 0xdd,
    0xf3, 0x2a, 0x37, 0x18, 0xf1, 0xb1, 0x04, 0x09, 0xf8, 0xfe, 0xe8, 0xd7,
    0x43, 0xa2, 0x2a, 0x02, 0x4a, 0x1d, 0x1b, 0xd6, 0xde, 0x47, 0x20, 0xf2,
    0x17, 0xe1, 0xf3, 0xff, 0xea, 0x13, 0xd2, 0xff, 0x85, 0x3c, 0x2c, 0x2e,
    0xe0, 0x17, 0xc4, 0x04, 0xff, 0xe9, 0xf0, 0x30, 0x43, 0x46, 0x3d, 0x54,
    0xce, 0xd0, 0xe2, 0x13, 0xf7, 0x05, 0xc7, 0x53, 0xdc, 0x19, 0xd3, 0xe5,
    0xe4, 0x17, 0x31, 0xd5, 0x02, 0xfd, 0xe7, 0xfa, 0x1e, 0xe5, 0xec, 0x9b,
    0x26, 0x0f, 0xb9, 0xd5, 0x2d, 0x00, 0xd1, 0xd5, 0x74, 0x49, 0xda, 0xe2,
    0xaa, 0x33, 0xe3, 0xf3, 0x4e, 0x55, 0x2f, 0xa9, 0x4e, 0x2d, 0x2a, 0x4f,
    0xb3, 0x4b, 0xab, 0x22, 0xcb, 0x2d, 0x5d, 0xb0, 0x03, 0xf2, 0xb2, 0xa8,
    0xf3, 0x1e, 0xa4, 0xd4, 0x2d, 0x75, 0x0b, 0x71, 0xd4, 0xe4, 0x20, 0x7a,
    0xee, 0xbf, 0xfb, 0xc4, 0xa8, 0xed, 0x33, 0x70, 0x62, 0xef, 0x43, 0x71,
    0x4d, 0x15, 0xf8, 0xc4, 0xc7, 0xcf, 0x23, 0xff, 0x40, 0x0d, 0xd0, 0x26,
    0x49, 0x61, 0xb0, 0x62, 0x9e, 0xbc, 0x2d, 0x02, 0x0e, 0xd4, 0x24, 0x8c,
    0xf6, 0x38, 0x96, 0x1c, 0xd1, 0x10, 0x0b, 0x70, 0xc6, 0xcc, 0x43, 0x10,
    0x7f, 0x22, 0x33, 0x1f, 0xd5, 0xc2, 0x0c, 0x4a, 0x5e, 0x9e, 0xfc, 0x14,
    0x03, 0x97, 0xc4, 0xd9, 0x9b, 0xb5, 0x74, 0xef, 0x73, 0x35, 0xb4, 0x0d,
    0x17, 0xa3, 0xa7, 0x19, 0x3a, 0x2c, 0xd1, 0xa9, 0x3a, 0x19, 0xd0, 0xff,
    0x27, 0x91, 0xa7, 0x4e, 0xde, 0xaa, 0xf6, 0x2a, 0xf9, 0xd5, 0x2c, 0x56,
    0x29, 0xf5, 0xdb, 0x35, 0x5b, 0xab, 0x21, 0xf5, 0x2d, 0xb6, 0x0a, 0xe3,
    0xb0, 0xa8, 0xfb, 0xb1, 0xfb, 0xec, 0xc9, 0xd3, 0x1c, 0xf2, 0xfc, 0xba,
    0xce, 0xca, 0x70, 0x01, 0x29, 0x4f, 0xf1, 0xbf, 0xda, 0x3f, 0xf3, 0x19,
    0x1e, 0x12, 0x17, 0xf8, 0x43, 0x60, 0x0e, 0xd9, 0x33, 0xdf, 0x21, 0xf3,
    0x44, 0xe1, 0x8f, 0xf1, 0x17, 0x06, 0xda, 0xaa, 0xb2, 0x35, 0x0d, 0xcd,
    0xca, 0x2c, 0xbd, 0xc6, 0xdc, 0x0f, 0x16, 0x9a, 0xe7, 0xbf, 0xdc, 0xcf,
    0x21, 0xc8, 0x26, 0x7f, 0xee, 0x33, 0xfb, 0x47, 0x6a, 0x26, 0xe3, 0xc7,
    0xb6, 0x1c, 0xde, 0x12, 0x71, 0xc3, 0x2c, 0xda, 0xd2, 0x34, 0x02, 0x4b,
    0xf1, 0xbb, 0xda, 0x29, 0x4f, 0x37, 0xc0, 0x09, 0xc4, 0x22, 0x04, 0x1f,
    0xea, 0xaa, 0x17, 0x42, 0xbe, 0xe7, 0x90, 0x4f, 0x2b, 0x48, 0x69, 0x53,
    0x3e, 0x45, 0xea, 0x52, 0x35, 0xc7, 0x9d, 0xda, 0xca, 0xc4, 0xdb, 0x09,
    0xa5, 0x25, 0x23, 0x5b, 0xd8, 0xb2, 0x8e, 0xed, 0xc1, 0xad, 0x3d, 0x37,
    0x10, 0x3a, 0x13, 0xd8, 0xd5, 0x11, 0x7f, 0xc6, 0xc8, 0x12, 0x3c, 0x0a,
    0xfb, 0x98, 0x24, 0x17, 0xdb, 0xb3, 0x2d, 0xa3, 0x1d, 0x0f, 0x7a, 0xa7,
    0x3e, 0xe7, 0x27, 0x46, 0xcf, 0x9b, 0xc2, 0x1a, 0x20, 0xbc, 0x1e, 0xbe,
    0x35, 0x22, 0xb2, 0x36, 0xde, 0x2a, 0xa4, 0x07, 0x12, 0x05, 0x3e, 0xeb,
    0x2a, 0x22, 0x32, 0x17, 0x30, 0x18, 0x15, 0x2e, 0x05, 0x63, 0xe7, 0xcf,
    0xb5, 0x2d, 0x29, 0x3b, 0xe0, 0xe0, 0xec, 0xeb, 0x2c, 0xb7, 0x03, 0xe4,
    0x27, 0xee, 0xa0, 0x45, 0xa9, 0x4f, 0x34, 0x24, 0x4d, 0xff, 0xde, 0x3b,
    0xbc, 0xfc, 0xb0, 0xf5, 0x3b, 0x54, 0xd9, 0x0b, 0x33, 0xfc, 0x09, 0xdd,
    0x42, 0xfa, 0x78, 0x17, 0x06, 0xc3, 0x4b, 0xea, 0x07, 0x36, 0xee, 0x09,
    0x23, 0xc3, 0x4b, 0xef, 0xae, 0xbb, 0x4d, 0xb4, 0xae, 0x46, 0x4c, 0xf6,
    0x17, 0x01, 0x09, 0xab, 0xb8, 0xf5, 0x28, 0x40, 0x34, 0x3f, 0xc7, 0xed,
    0x67, 0xf4, 0xe8, 0xbf, 0x33, 0x12, 0x13, 0x20, 0x1a, 0x2a, 0x27, 0x33,
    0xf9, 0xb3, 0xc7, 0x46, 0x26, 0xcd, 0x3c, 0xe7, 0x39, 0xbf, 0x15, 0xd2,
    0xa0, 0x28, 0xb8, 0xc4, 0xd1, 0xd7, 0xd0, 0x08, 0x37, 0x0a, 0xc5, 0xfe,
    0x59, 0x12, 0x24, 0xcb, 0x3c, 0xd7, 0x2c, 0xb4, 0x1c, 0x42, 0xf3, 0xc5,
    0x34, 0x1f, 0xd9, 0xe3, 0x1f, 0x47, 0x4f, 0x21, 0xee, 0x3d, 0x43, 0x10,
    0x4b, 0xad, 0xea, 0xe3, 0xed, 0xf2, 0xee, 0x24, 0x05, 0x03, 0x96, 0xe4,
    0xc1, 0xfa, 0xee, 0x97, 0x47, 0xac, 0xc7, 0x3c, 0x2f, 0xcd, 0xc2, 0xd3,
    0x02, 0x16, 0x23, 0xf1, 0x0c, 0xd8, 0x3a, 0xd8, 0x09, 0xe5, 0x3c, 0x34,
    0x15, 0x12, 0xef, 0xe0, 0xef, 0x41, 0x13, 0x20, 0xa5, 0x24, 0xee, 0xdc,
    0xce, 0x7f, 0x30, 0xf1, 0xd0, 0xd4, 0x4e, 0x61, 0x93, 0xdf, 0xdf, 0xfe,
    0xfe, 0x24, 0xf4, 0x41, 0xe3, 0x06, 0xf6, 0xb7, 0x51, 0xdf, 0xf7, 0xe6,
    0xfd, 0xa5, 0xf7, 0xf8, 0xa6, 0xd6, 0x33, 0x1e, 0xb3, 0x2e, 0x5e, 0x97,
    0xf3, 0x3f, 0x13, 0xd4, 0x18, 0xfc, 0x2c, 0x0a, 0x25, 0xf6, 0x07, 0x06,
    0x3c, 0xc0, 0xd4, 0x3c, 0xd8, 0xf9, 0xb6, 0xe0, 0x0e, 0x0a, 0x10, 0x0d,
    0xdf, 0xb6, 0x04, 0x23, 0x5b, 0xdc, 0xe1, 0x4d, 0x7e, 0xf8, 0x14, 0x47,
    0x3a, 0x09, 0x38, 0x0a, 0x07, 0x01, 0x0b, 0xb6, 0x48, 0xce, 0xc5, 0xeb,
    0xde, 0x2f, 0xed, 0x97, 0xf8, 0xc9, 0x8f, 0x27, 0xdd, 0xe2, 0xf0, 0xd9,
    0x54, 0xe1, 0xf4, 0xe9, 0xf6, 0x22, 0x16, 0xd4, 0x4f, 0x4c, 0x2c, 0xf7,
    0x3d, 0x09, 0x29, 0x0e, 0x37, 0xe2, 0xde, 0xb4, 0x22, 0x1c, 0xe6, 0xfd,
    0x34, 0x04, 0x20, 0x36, 0x18, 0x4b, 0xea, 0xe4, 0x01, 0xa5, 0xe3, 0xe6,
    0x10, 0x5f, 0x0e, 0x94, 0x19, 0xc4, 0x11, 0xf8, 0xb9, 0xe3, 0xea, 0x03,
    0x02, 0xd1, 0xee, 0x3f, 0x20, 0x46, 0xe9, 0x02, 0xfc, 0xec, 0x2d, 0x32,
    0x20, 0x3b, 0xe6, 0xd8, 0x02, 0xb4, 0xdd, 0x32, 0xf8, 0x58, 0xcd, 0x2d,
    0xd7, 0x57, 0xfd, 0xd7, 0xd6, 0x1f, 0x14, 0x81, 0x36, 0x00, 0x35, 0xdf,
    0xfb, 0x5e, 0x9f, 0xf6, 0xbc, 0x1a, 0xc3, 0x2e, 0x9a, 0xa9, 0xea, 0x4d,
    0xdc, 0xef, 0x10, 0xf9, 0xf1, 0xe5, 0xc7, 0x30, 0xfa, 0x2b, 0x7d, 0x1d,
    0x1d, 0xf9, 0xea, 0xdb, 0x36, 0x55, 0x3a, 0x4f, 0xaa, 0x3e, 0x7f, 0xed,
    0x52, 0xfd, 0x33, 0x66, 0x3c, 0xe6, 0xc3, 0xf8, 0xa7, 0x4e, 0x03, 0x33,
    0x60, 0x26, 0x51, 0x1e, 0xb8, 0x1d, 0x11, 0x03, 0x44, 0xa1, 0x31, 0x46,
    0xfe, 0x2a, 0x38, 0x60, 0x19, 0x0b, 0x77, 0xf5, 0x01, 0x24, 0xf7, 0xda,
    0x45, 0x2f, 0xb1, 0xda, 0xab, 0xe8, 0xaa, 0xd6, 0xef, 0x2c, 0x27, 0xf2,
    0x11, 0xf7, 0xe2, 0xc6, 0x66, 0x33, 0xc4, 0xa0, 0xf6, 0x4e, 0xe3, 0xdf,
    0x07, 0x92, 0xed, 0x5f, 0xe5, 0x48, 0x2a, 0xfe, 0x17, 0xc6, 0x3f, 0xb9,
    0xe1, 0x06, 0x23, 0x41, 0xbf, 0x49, 0x65, 0x03, 0xef, 0x0b, 0x4d, 0xf4,
    0xd8, 0x36, 0xe0, 0xbc, 0xff, 0xeb, 0x31, 0x21, 0x1c, 0x56, 0x16, 0xeb,
    0xf0, 0x54, 0xec, 0x47, 0xc7, 0xa5, 0x9e, 0xcd, 0xc8, 0xf3, 0xd6, 0x28,
    0xb5, 0x3e, 0x14, 0xa1, 0xdc, 0xec, 0x97, 0x27, 0xa1, 0xb6, 0xf6, 0x81,
    0xda, 0x37, 0x03, 0x07, 0xf4, 0x4a, 0xd9, 0xba, 0xa8, 0x4d, 0xe8, 0xdd,
    0x0c, 0x90, 0x00, 0x15, 0xe9, 0xd6, 0x29, 0xcc, 0x3a, 0x57, 0x38, 0x3e,
    0x2c, 0xa0, 0xa1, 0x26, 0x21, 0xb3, 0xc8, 0xce, 0x02, 0x3c, 0xd8, 0xd5,
    0x35, 0xe5, 0xda, 0xe1, 0x36, 0x0c, 0xf2, 0xf4, 0x4e, 0x95, 0x25, 0x0c,
    0x08, 0xf1, 0xf1, 0xee, 0xe2, 0x5f, 0x36, 0x14, 0x39, 0xed, 0xa2, 0xd6,
    0x2f, 0xc3, 0x39, 0x1a, 0x14, 0x45, 0x13, 0xfa, 0xa2, 0xf8, 0xed, 0x01,
    0x3c, 0x1c, 0xba, 0x0c, 0xb5, 0xb0, 0x29, 0xbf, 0xe2, 0xf7, 0xb6, 0xcb,
    0x45, 0xc7, 0xd9, 0x69, 0xeb, 0x1d, 0xfb, 0xf9, 0xc5, 0x39, 0xff, 0xe0,
    0x28, 0xff, 0x1f, 0x4a, 0xf4, 0xdf, 0x48, 0x4b, 0x4d, 0x04, 0xfa, 0x09,
    0xfe, 0xda, 0x42, 0xb9, 0x04, 0x2a, 0x41, 0x14, 0x43, 0x49, 0x2b, 0x24,
    0x1d, 0xf4, 0x02, 0x30, 0x3a, 0xfd, 0x18, 0x08, 0xe6, 0xeb, 0x12, 0x6a,
    0x19, 0xc9, 0xf0, 0xf6, 0x3c, 0xf6, 0x1d, 0x64, 0x34, 0xe6, 0x59, 0xd7,
    0xdb, 0x52, 0x07, 0x60, 0x20, 0x47, 0xf5, 0xc2, 0x98, 0x49, 0xcf, 0xe7,
    0xfe, 0x29, 0xf0, 0x94, 0xde, 0x56, 0xa4, 0xe5, 0x41, 0xf3, 0x0b, 0x56,
    0x42, 0xb3, 0x2e, 0xe2, 0x45, 0xfe, 0x55, 0x1c, 0x55, 0xbe, 0x45, 0xf8,
    0xad, 0x32, 0xb4, 0x09, 0xdc, 0x34, 0xdf, 0x1f, 0xd4, 0xe3, 0x11, 0xfa,
    0xae, 0xdd, 0x7f, 0x2c, 0xf9, 0x35, 0x43, 0xc1, 0xd7, 0xa4, 0xc2, 0x12,
    0xb2, 0xc7, 0xf3, 0xde, 0x2b, 0xd6, 0x11, 0x9f, 0x17, 0x2d, 0x0f, 0x17,
    0x29, 0xbf, 0x42, 0x02, 0xa4, 0xc9, 0x2e, 0x13, 0x1f, 0xd4, 0xfc, 0xf9,
    0x4a, 0x00, 0xf2, 0x04, 0x09, 0xc6, 0x05, 0x14, 0x47, 0xaf, 0xf4, 0x1c,
    0x00, 0x57, 0x28, 0x22, 0xfa, 0x34, 0x07, 0x46, 0xe1, 0x3e, 0x30, 0x4a,
    0x11, 0x14, 0x11, 0x84, 0xec, 0x04, 0x0c, 0xfd, 0xb3, 0x07, 0xe1, 0xd3,
    0xc6, 0x36, 0x4a, 0x45, 0x07, 0x41, 0x0c, 0xe0, 0xf4, 0xb6, 0x1b, 0x3b,
    0xea, 0x27, 0xa7, 0x39, 0xb2, 0xfe, 0x20, 0x11, 0x3e, 0xf6, 0x68, 0xdf,
    0xbc, 0x00, 0xed, 0xe9, 0x1c, 0xe2, 0xee, 0x00, 0x12, 0xb8, 0x1a, 0x0b,
    0xc3, 0x1c, 0x38, 0x19, 0x81, 0xdb, 0xfe, 0x9e, 0xa3, 0x3c, 0xdf, 0x9f,
    0xd8, 0x8c, 0xec, 0xff, 0x15, 0xd6, 0x1b, 0xd1, 0xbc, 0x28, 0xce, 0x93,
    0x02, 0x27, 0x2d, 0xa1, 0x2f, 0x36, 0x4a, 0xd8, 0x38, 0x1e, 0x04, 0xfe,
    0xf7, 0x52, 0x53, 0x05, 0x25, 0xe3, 0x05, 0x1f, 0xb1, 0xe2, 0x38, 0xbf,
    0xcd, 0xef, 0x09, 0x22, 0x28, 0x03, 0x64, 0x01, 0x2f, 0xe4, 0xf9, 0xd8,
    0x3f, 0xc6, 0xa5, 0x04, 0x53, 0xf5, 0x2e, 0x9c, 0xd6, 0x0b, 0x56, 0xf9,
    0x40, 0x47, 0xdc, 0x82, 0x08, 0xde, 0xf2, 0x76, 0xd0, 0x36, 0x5c, 0xeb,
    0x1f, 0xd6, 0x20, 0x21, 0x1c, 0x18, 0x2e, 0xf3, 0xda, 0xb2, 0x3e, 0xab,
    0xd3, 0xb8, 0x45, 0xe0, 0xfc, 0xad, 0xc5, 0x62, 0x4a, 0x99, 0x01, 0xb0,
    0x23, 0x06, 0x2a, 0xa6, 0x2f, 0xc5, 0x0e, 0x02, 0xfb, 0xe7, 0x29, 0xdd,
    0x3d, 0xdb, 0xbd, 0xdd, 0x31, 0xbf, 0xdb, 0xe9, 0x7a, 0xd7, 0xff, 0xff,
    0x04, 0x00, 0x00, 0x00, 0x80, 0x00, 0x00, 0x00, 0x31, 0x18, 0x00, 0x00,
    0xf6, 0x2b, 0x00, 0x00, 0x98, 0x09, 0x00, 0x00, 0x69, 0x10, 0x00, 0x00,
    0xc7, 0x14, 0x00, 0x00, 0x2e, 0xf2, 0xff, 0xff, 0x54, 0xcf, 0xff, 0xff,
    0xca, 0xf8, 0xff, 0xff, 0x36, 0x75, 0x00, 0x00, 0xad, 0x05, 0x00, 0x00,
    0x05, 0x16, 0x00, 0x00, 0xfe, 0x09, 0x00, 0x00, 0x1c, 0x47, 0x00, 0x00,
    0xa8, 0xdd, 0xff, 0xff, 0x28, 0x37, 0x00, 0x00, 0xa7, 0x46, 0x00, 0x00,
    0x12, 0x07, 0x00, 0x00, 0x0e, 0xc4, 0xff, 0xff, 0x8b, 0x09, 0x00, 0x00,
    0xf8, 0x10, 0x00, 0x00, 0x33, 0x40, 0x00, 0x00, 0x97, 0xed, 0xff, 0xff,
    0x79, 0x40, 0x00, 0x00, 0x42, 0xfc, 0xff, 0xff, 0xc0, 0x19, 0x00, 0x00,
    0x98, 0xcf, 0xff, 0xff, 0xb7, 0x14, 0x00, 0x00, 0xab, 0xf0, 0xff, 0xff,
    0x58, 0xc1, 0xff, 0xff, 0x74, 0xec, 0xff, 0xff, 0xe7, 0xe8, 0xff, 0xff,
    0x2f, 0x36, 0x00, 0x00, 0x06, 0xd8, 0xff, 0xff, 0x04, 0x00, 0x00, 0x00,
    0x00, 0x24, 0x00, 0x00, 0x18, 0xed, 0x23, 0x50, 0x23, 0xcb, 0xf7, 0x39,
    0xd1, 0x40, 0x5c, 0xe2, 0x18, 0xfd, 0xfe, 0xdd, 0xcd, 0xfe, 0xf7, 0xf6,
    0xd5, 0xec, 0xcc, 0x1a, 0x1f, 0x0d, 0xf5, 0x28, 0xdf, 0x9c, 0xe8, 0x11,
    0x15, 0xde, 0xfd, 0xf5, 0x11, 0xca, 0x0a, 0x22, 0xdd, 0x20, 0xed, 0x1b,
    0x30, 0xdf, 0xf9, 0xef, 0x37, 0xec, 0x37, 0x29, 0x10, 0x08, 0x15, 0xc1,
    0x01, 0x19, 0x68, 0x3a, 0x2c, 0xb8, 0x2d, 0x5d, 0x2f, 0x1f, 0xfb, 0x23,
    0x17, 0xd6, 0xf0, 0x0d, 0xd8, 0x1f, 0x42, 0x28, 0xf3, 0xf8, 0xcf, 0xc8,
    0xff, 0xea, 0x4b, 0xe8, 0x10, 0xf8, 0x9e, 0x17, 0xb3, 0x22, 0xf4, 0x49,
    0xc4, 0xe0, 0xef, 0x19, 0x38, 0xde, 0x45, 0xee, 0xfc, 0xfe, 0xff, 0x4e,
    0x04, 0x15, 0x23, 0x13, 0x36, 0x0f, 0x0a, 0xe7, 0xeb, 0x15, 0xfb, 0x16,
    0x1c, 0xc5, 0xff, 0xf5, 0xf7, 0x39, 0x5d, 0x3c, 0x01, 0x04, 0xfa, 0x12,
    0x19, 0x02, 0x0e, 0x35, 0xf3, 0x25, 0x48, 0x1e, 0xb9, 0x42, 0x0b, 0x4e,
    0xf9, 0xd8, 0x24, 0xfa, 0x01, 0xe9, 0x10, 0x2f, 0xdd, 0x41, 0x1d, 0xe7,
    0x40, 0x25, 0xf2, 0x3c, 0xd6, 0xc6, 0x4f, 0x09, 0xfd, 0xb7, 0xf7, 0xf4,
    0x0e, 0xf1, 0x05, 0x69, 0x00, 0xfa, 0x33, 0x50, 0x44, 0x25, 0x21, 0xc1,
    0xd5, 0x29, 0xe8, 0x34, 0x29, 0x20, 0x03, 0x44, 0x21, 0x0b, 0xf5, 0xe7,
    0xab, 0xe8, 0x52, 0x1d, 0x22, 0x12, 0xde, 0x1a, 0x27, 0xd4, 0x0f, 0xfe,
    0x04, 0x01, 0xfc, 0x15, 0x42, 0xd7, 0xe2, 0x0a, 0xc9, 0xf0, 0x23, 0xd5,
    0x39, 0xd6, 0xc3, 0x0c, 0xf8, 0xfc, 0x38, 0x26, 0x33, 0xab, 0x24, 0x11,
    0xd6, 0xe2, 0x0d, 0x33, 0x48, 0xdb, 0xde, 0x1b, 0xe3, 0x00, 0x05, 0xe5,
    0x01, 0xfa, 0xd7, 0xd0, 0xff, 0x0a, 0x61, 0x0b, 0x30, 0x1c, 0xf5, 0xfe,
    0xec, 0xf6, 0x06, 0xed, 0xf7, 0x05, 0x0c, 0x5a, 0xf7, 0xc7, 0x15, 0x25,
    0x7f, 0x2e, 0xf8, 0x11, 0xef, 0x00, 0x17, 0x11, 0xe1, 0x12, 0xd8, 0x9f,
    0xc6, 0xb5, 0x32, 0x27, 0x21, 0x1b, 0xec, 0xeb, 0xf1, 0x0a, 0xf8, 0xf2,
    0xb7, 0xf5, 0x15, 0x45, 0x44, 0xf9, 0x60, 0x21, 0xdc, 0xd4, 0x47, 0xf2,
    0xb8, 0x71, 0x33, 0xdc, 0x18, 0x07, 0xc2, 0xfb, 0xbf, 0xb6, 0x00, 0x1e,
    0x0a, 0x22, 0xa5, 0xfb, 0x0f, 0x32, 0x78, 0xff, 0x21, 0xec, 0x1e, 0x12,
    0x17, 0xb3, 0x28, 0x4b, 0x13, 0x12, 0x28, 0x1b, 0x15, 0x15, 0xf9, 0xda,
    0x17, 0xe8, 0xd7, 0x99, 0x0e, 0xca, 0x18, 0x30, 0x0c, 0xc1, 0xf4, 0xdc,
    0xc9, 0x24, 0x5b, 0x0a, 0xeb, 0x15, 0xf9, 0xff, 0x29, 0xf2, 0x0e, 0x0e,
    0x12, 0xd5, 0xfd, 0x0d, 0x09, 0xf0, 0x57, 0x1f, 0x21, 0xfb, 0xce, 0x19,
    0xc0, 0x13, 0x3c, 0x15, 0xad, 0x1e, 0xc0, 0xf0, 0xde, 0xf7, 0x63, 0x3b,
    0xb1, 0xc2, 0x11, 0x4e, 0x08, 0xf4, 0x3c, 0x17, 0x4f, 0xc8, 0x0f, 0x13,
    0x22, 0x5e, 0x18, 0x08, 0x04, 0xed, 0x30, 0xf7, 0x3b, 0xeb, 0xfd, 0x25,
    0xd7, 0xc1, 0xdc, 0xb3, 0xdf, 0x11, 0x29, 0x5a, 0x04, 0xe8, 0x24, 0x0d,
    0xfb, 0x25, 0x2f, 0x04, 0x16, 0x25, 0x15, 0x15, 0xf6, 0xdb, 0x27, 0xe4,
    0x22, 0x04, 0x32, 0xf6, 0xf2, 0x0e, 0x58, 0x54, 0xc3, 0x1c, 0xdb, 0xc3,
    0xfd, 0x5f, 0x61, 0xf6, 0xc2, 0xdb, 0x3c, 0x0b, 0xdb, 0xec, 0x50, 0xd1,
    0x16, 0x2f, 0x0b, 0x25, 0xc0, 0xe5, 0xfe, 0x47, 0x63, 0xf2, 0x2f, 0xd5,
    0xc0, 0xba, 0x48, 0x16, 0xa0, 0xe2, 0xf4, 0x60, 0xb4, 0xe8, 0x34, 0xcf,
    0x07, 0xd2, 0x28, 0x36, 0xe6, 0xbe, 0x0c, 0xf4, 0x2e, 0xef, 0x1d, 0x4a,
    0x09, 0xf7, 0x15, 0x2b, 0x03, 0x44, 0xad, 0xb8, 0xe7, 0xad, 0xfc, 0x0b,
    0xc5, 0xe9, 0xb6, 0xae, 0xbf, 0x69, 0x18, 0x1b, 0x2e, 0xa8, 0xf6, 0x72,
    0x2c, 0x10, 0x7e, 0xcc, 0x07, 0xda, 0x54, 0x4c, 0xf5, 0xe3, 0x1f, 0xe0,
    0xe4, 0xfa, 0x12, 0xc7, 0xef, 0x07, 0x36, 0xef, 0xee, 0x01, 0xb0, 0xcb,
    0xb3, 0x1b, 0x43, 0x47, 0xf9, 0x9e, 0x59, 0x66, 0xf4, 0x8f, 0xfc, 0x4d,
    0x7f, 0x1c, 0x54, 0x25, 0xb0, 0xf9, 0xfc, 0x04, 0x46, 0xee, 0xb0, 0xf0,
    0x21, 0xf3, 0x64, 0x1c, 0x31, 0xb8, 0xe7, 0x07, 0xab, 0x62, 0x38, 0x30,
    0xcc, 0xb8, 0x28, 0x2d, 0xb5, 0xa5, 0xe0, 0xf4, 0xdf, 0xba, 0xf6, 0x13,
    0xc9, 0xcc, 0x9c, 0x5a, 0x11, 0x06, 0x1a, 0x98, 0x49, 0x32, 0xb4, 0xc8,
    0x09, 0x19, 0xbe, 0x53, 0xde, 0xed, 0xa7, 0xbe, 0xff, 0x3d, 0xfe, 0xc6,
    0x1f, 0xae, 0x4c, 0x42, 0x2d, 0x2b, 0xe2, 0xd9, 0xb4, 0xcf, 0x00, 0x66,
    0xbe, 0x07, 0x52, 0x38, 0xf3, 0xe8, 0x23, 0xbc, 0xb2, 0x5c, 0x2d, 0x46,
    0x1c, 0xe6, 0x34, 0xce, 0x5a, 0x5c, 0xf8, 0x1e, 0xb8, 0x10, 0xf6, 0x3e,
    0xca, 0x43, 0x04, 0xe9, 0x19, 0xdb, 0xea, 0xbb, 0x95, 0x3f, 0x18, 0x20,
    0xfc, 0x2f, 0x25, 0xc5, 0x06, 0x2f, 0x05, 0xf4, 0xce, 0x08, 0xfe, 0x32,
    0xb6, 0xd0, 0x2e, 0xde, 0x2a, 0x39, 0xd7, 0xd1, 0x2b, 0x05, 0x51, 0xf8,
    0x81, 0x09, 0xbc, 0xdd, 0x3b, 0x59, 0x33, 0xc4, 0x1b, 0xd2, 0xee, 0xb5,
    0xa8, 0xd1, 0xbb, 0x3f, 0xcf, 0x38, 0xb5, 0x20, 0xd8, 0x72, 0x37, 0x00,
    0x22, 0x39, 0xd0, 0x3f, 0xcf, 0xa9, 0x0f, 0xca, 0x21, 0x34, 0x98, 0x1c,
    0x39, 0x52, 0xf2, 0xcd, 0xdb, 0x2a, 0xe7, 0x04, 0xba, 0x56, 0xa5, 0x15,
    0xfa, 0xf8, 0x3c, 0xc4, 0x46, 0xc5, 0x46, 0x9e, 0x48, 0x44, 0x8c, 0xf9,
    0x30, 0xb0, 0xf8, 0xe8, 0x31, 0xa1, 0xe5, 0x0e, 0xcc, 0xe0, 0x17, 0xf5,
    0xaf, 0xef, 0x98, 0xd0, 0x07, 0x07, 0x26, 0x42, 0x43, 0xf8, 0xea, 0xb4,
    0x24, 0x9e, 0x45, 0xf5, 0x31, 0xe1, 0xdb, 0x25, 0x19, 0xfa, 0x41, 0x1b,
    0xf0, 0x3a, 0x25, 0xc4, 0x2e, 0xc6, 0xea, 0x23, 0x00, 0x5c, 0xe4, 0xd6,
    0xbd, 0x55, 0x5d, 0xc8, 0x60, 0xc8, 0xa4, 0xc8, 0x37, 0x0b, 0x33, 0x8d,
    0xcd, 0xf8, 0xc3, 0x13, 0x43, 0xc0, 0xd2, 0x41, 0x27, 0x24, 0xee, 0xd5,
    0x4a, 0xa8, 0x29, 0xa2, 0xd9, 0xdd, 0xf3, 0x45, 0xc5, 0xd8, 0x08, 0x1a,
    0xc6, 0x2b, 0xd6, 0xb6, 0xea, 0x64, 0xb5, 0xe7, 0x66, 0x27, 0x11, 0x09,
    0xec, 0xda, 0x07, 0xde, 0x0f, 0xa8, 0xe9, 0x26, 0xfa, 0xc5, 0x32, 0x18,
    0x32, 0x0c, 0xb1, 0x46, 0xad, 0x10, 0xe4, 0xc8, 0x2b, 0xd3, 0x98, 0x03,
    0xe3, 0xca, 0x38, 0xd7, 0x71, 0xe2, 0x29, 0x18, 0x2e, 0xb5, 0xff, 0x47,
    0x23, 0x14, 0x54, 0xc6, 0xed, 0x0f, 0x0e, 0xc8, 0xce, 0xe0, 0xd5, 0xc8,
    0xf7, 0xdb, 0xe5, 0xd2, 0x12, 0x1b, 0x28, 0x2f, 0xec, 0xef, 0x13, 0x10,
    0x13, 0x07, 0x35, 0x3a, 0xee, 0xd1, 0x4b, 0x11, 0x21, 0x1f, 0xe2, 0xb5,
    0x00, 0x04, 0x1d, 0xfd, 0xea, 0x2f, 0x41, 0x21, 0x18, 0xbd, 0x25, 0xda,
    0xd4, 0x4a, 0x31, 0x42, 0x9b, 0xe6, 0xfa, 0xea, 0x18, 0xe9, 0x1f, 0x1a,
    0xff, 0xa4, 0x08, 0x14, 0xf7, 0xc5, 0xdf, 0xd3, 0x01, 0x36, 0x18, 0xc3,
    0x01, 0xc1, 0x2a, 0xf5, 0x14, 0x07, 0xc3, 0x6f, 0x14, 0x17, 0x59, 0x1c,
    0xdd, 0x24, 0x6a, 0xd3, 0xf9, 0xf5, 0x29, 0x54, 0xfa, 0xdd, 0x67, 0x2e,
    0xf7, 0x21, 0x5c, 0x2e, 0x44, 0xe7, 0x42, 0xdd, 0xf2, 0xda, 0xe8, 0xdb,
    0x33, 0x27, 0xa2, 0xe4, 0xd3, 0xf3, 0x21, 0xe8, 0xee, 0xef, 0x0e, 0xfb,
    0x19, 0x07, 0x08, 0x2a, 0x2c, 0xf7, 0x32, 0x1f, 0xf9, 0xcb, 0x1d, 0x3d,
    0x20, 0xba, 0xeb, 0x13, 0xe9, 0xf3, 0x56, 0x43, 0x3e, 0x1c, 0xc3, 0x03,
    0xed, 0xeb, 0x19, 0x44, 0x20, 0xf6, 0x3f, 0xe7, 0x03, 0xaa, 0xfc, 0x1e,
    0x44, 0x05, 0x55, 0x43, 0xb6, 0x29, 0x1c, 0x1e, 0x11, 0xf3, 0x26, 0xde,
    0xdc, 0xeb, 0x16, 0xe9, 0x06, 0x10, 0xd5, 0x1d, 0xd9, 0x04, 0x45, 0x4b,
    0xcb, 0xd6, 0x00, 0x34, 0x45, 0x0f, 0x0b, 0x03, 0x2a, 0xe8, 0x02, 0x42,
    0x03, 0x2e, 0x15, 0xf2, 0xe8, 0xee, 0x3a, 0xf4, 0x0f, 0xf0, 0x3d, 0xce,
    0xeb, 0x1a, 0xc2, 0xb3, 0xc1, 0x2e, 0x39, 0x28, 0xd6, 0xff, 0x4c, 0x37,
    0x50, 0xd9, 0xe9, 0x05, 0x0a, 0x05, 0x03, 0x4e, 0xe8, 0xfe, 0xf0, 0xe4,
    0x06, 0x10, 0x0f, 0xb1, 0xd7, 0xab, 0x00, 0x3d, 0x53, 0x2a, 0xd6, 0x12,
    0xf1, 0x69, 0xe8, 0x1f, 0xbf, 0xd3, 0xe6, 0x4b, 0xca, 0xfb, 0x02, 0xcb,
    0x28, 0x1b, 0x53, 0x52, 0x26, 0xc2, 0xc9, 0x4a, 0xf0, 0xed, 0x13, 0xbc,
    0x19, 0xd5, 0x25, 0x2c, 0xe1, 0xc9, 0x06, 0x55, 0x81, 0x40, 0x14, 0x36,
    0xc2, 0x03, 0x54, 0x79, 0x3e, 0xcd, 0x7a, 0xe6, 0x1a, 0x31, 0x22, 0xb6,
    0x06, 0x11, 0xf3, 0x1c, 0xe6, 0xee, 0xc1, 0xea, 0x41, 0xfd, 0x0b, 0xec,
    0xd8, 0xe1, 0x1d, 0xee, 0xc5, 0x06, 0xf9, 0x3e, 0xdd, 0xdf, 0x3e, 0x6f,
    0x46, 0xb3, 0x40, 0xd7, 0x0f, 0x4a, 0xe5, 0xf8, 0x26, 0xdc, 0x3b, 0xf7,
    0xf3, 0x31, 0xdf, 0xcc, 0x1e, 0x24, 0xf2, 0x38, 0x1a, 0xd8, 0x10, 0x12,
    0x19, 0xdb, 0xed, 0xe9, 0x03, 0xeb, 0xd9, 0x20, 0x15, 0x03, 0x31, 0x02,
    0x32, 0x0c, 0xf3, 0x20, 0x10, 0x26, 0x53, 0xd6, 0x35, 0xda, 0xdb, 0xe1,
    0x21, 0x21, 0xe0, 0xf4, 0xe5, 0xe0, 0x99, 0xb0, 0x1b, 0x31, 0xf8, 0xca,
    0x16, 0xcf, 0x16, 0x51, 0xee, 0xbb, 0x66, 0xdb, 0xf9, 0x47, 0x01, 0xc6,
    0x2c, 0x01, 0xf1, 0x19, 0x12, 0xe4, 0xc7, 0xeb, 0xf3, 0x20, 0x40, 0x2e,
    0xef, 0xfe, 0xce, 0xe6, 0x29, 0xe8, 0x2b, 0xd5, 0x2a, 0xe4, 0xda, 0x6e,
    0x2d, 0x05, 0x12, 0x02, 0x50, 0x10, 0x20, 0x10, 0x16, 0xe6, 0x41, 0x0e,
    0x1b, 0xf1, 0xfd, 0xcd, 0x4a, 0xc6, 0xe6, 0x3d, 0x17, 0x2d, 0x05, 0xcc,
    0xfb, 0x4b, 0xcf, 0xe9, 0xff, 0xdd, 0xe1, 0x30, 0xc4, 0xe1, 0x22, 0x08,
    0x20, 0x67, 0x3c, 0xb2, 0x1b, 0xe0, 0x3a, 0xd4, 0xef, 0xeb, 0x1a, 0xdf,
    0x62, 0x16, 0xe2, 0xee, 0xff, 0x15, 0xff, 0xc4, 0xe4, 0x2d, 0x1c, 0xdf,
    0x21, 0xf8, 0x3a, 0x06, 0x1d, 0xca, 0x7f, 0xc9, 0x45, 0x37, 0xb8, 0xee,
    0xf7, 0x0b, 0xfb, 0xf2, 0x0d, 0x03, 0xdc, 0xf9, 0xe5, 0x04, 0x12, 0xef,
    0xb3, 0xbc, 0x22, 0xe2, 0xc0, 0x1e, 0xf0, 0xd1, 0x16, 0xc8, 0x14, 0x37,
    0xdb, 0x24, 0x30, 0x16, 0xe9, 0x39, 0x2d, 0xe2, 0x22, 0x40, 0x1a, 0xe5,
    0x49, 0x0c, 0x20, 0x05, 0x33, 0xdd, 0xb5, 0x2e, 0xf5, 0xc1, 0xd1, 0xbe,
    0x08, 0x09, 0x24, 0x33, 0x2e, 0x17, 0xed, 0x04, 0xaf, 0xc2, 0xea, 0xe5,
    0x26, 0x6a, 0x09, 0x2f, 0xd4, 0x3f, 0x08, 0x39, 0x5e, 0x35, 0xb5, 0x0b,
    0x21, 0xbb, 0xc0, 0x3a, 0xfe, 0xfe, 0xea, 0xd5, 0xe9, 0x14, 0xc4, 0x41,
    0xdc, 0xe9, 0x1d, 0x36, 0xee, 0xec, 0x60, 0x47, 0x31, 0xc3, 0xff, 0xeb,
    0xb7, 0x36, 0x47, 0xbf, 0x1a, 0xc6, 0x18, 0x2d, 0xaa, 0xf8, 0xfd, 0x28,
    0x0d, 0x1e, 0xb9, 0xd4, 0x13, 0xf2, 0x45, 0x11, 0xc8, 0x32, 0x29, 0x1c,
    0x47, 0x26, 0xeb, 0xec, 0xfc, 0x12, 0x65, 0x0e, 0xe0, 0xfc, 0x0a, 0xd7,
    0x2e, 0x14, 0xc5, 0x0c, 0x05, 0xa9, 0x55, 0x27, 0x2f, 0xc1, 0x2a, 0x41,
    0xfb, 0x20, 0x2f, 0xea, 0xde, 0x0b, 0x29, 0x20, 0x4e, 0xca, 0xd3, 0xf4,
    0xc9, 0xc3, 0x61, 0xf9, 0xf3, 0x1b, 0xf8, 0x14, 0x67, 0x07, 0x02, 0x19,
    0xcd, 0xd6, 0x39, 0x15, 0x36, 0xd6, 0xa8, 0x63, 0xdd, 0x46, 0xf6, 0x59,
    0xda, 0xd9, 0x59, 0xcc, 0xff, 0x3f, 0x07, 0x5a, 0x2e, 0xa6, 0x0b, 0x59,
    0xc8, 0x60, 0xff, 0xf5, 0xe1, 0xcc, 0xfe, 0xe1, 0xf1, 0xbe, 0xfa, 0xce,
    0x31, 0x3f, 0x01, 0x15, 0x2b, 0x60, 0x17, 0x56, 0xdf, 0xc6, 0x5e, 0xf1,
    0xe1, 0xb0, 0xdb, 0x43, 0x4a, 0xe1, 0x24, 0xfd, 0x2e, 0x45, 0x37, 0x01,
    0x41, 0xed, 0x03, 0xb7, 0x34, 0xcb, 0x31, 0x4d, 0x5f, 0xf5, 0x33, 0x10,
    0xb3, 0x4b, 0x5c, 0x2a, 0xd5, 0xbf, 0xee, 0x00, 0xdb, 0xf0, 0x23, 0xd1,
    0xed, 0xbb, 0x45, 0x42, 0xb4, 0xe3, 0xeb, 0x68, 0x50, 0xd4, 0x2e, 0xc6,
    0xee, 0xea, 0x31, 0xf2, 0x44, 0xf6, 0x1a, 0x7e, 0xb7, 0x0a, 0x3d, 0xf1,
    0x1f, 0xd5, 0x55, 0xda, 0x11, 0xd9, 0x26, 0x48, 0xff, 0xe3, 0x25, 0x4d,
    0x01, 0x24, 0x11, 0xfe, 0x26, 0xdf, 0x05, 0xdd, 0xfe, 0xb1, 0xce, 0x22,
    0x15, 0x10, 0xe8, 0xce, 0xeb, 0x1c, 0x0e, 0xed, 0xdb, 0xd0, 0x21, 0x16,
    0x23, 0xe9, 0x21, 0x49, 0x03, 0xd8, 0x50, 0x67, 0x1a, 0xcf, 0x1d, 0x00,
    0xcd, 0xf1, 0xb4, 0xe5, 0xe0, 0x06, 0xef, 0xd3, 0x1e, 0x3f, 0xf9, 0xd4,
    0xc0, 0x33, 0x3c, 0xcb, 0xf4, 0xd2, 0x50, 0x7f, 0xe5, 0xb2, 0x3e, 0xdb,
    0x24, 0xbb, 0x0c, 0x1c, 0x35, 0xf4, 0xc8, 0x05, 0x56, 0xb6, 0x32, 0xdf,
    0xe4, 0xf1, 0x55, 0x4d, 0x18, 0xde, 0xc3, 0x19, 0xd7, 0x6e, 0x26, 0x38,
    0x1a, 0x04, 0xe6, 0x01, 0x26, 0xd2, 0xef, 0xc7, 0xd6, 0xf3, 0x17, 0xe7,
    0x7f, 0xc0, 0x26, 0xc4, 0x04, 0x01, 0x23, 0x04, 0xe1, 0x3f, 0x37, 0xdc,
    0xb8, 0x30, 0x41, 0x20, 0xef, 0x0f, 0xa1, 0xff, 0x3f, 0x3d, 0x01, 0x1f,
    0xe0, 0x19, 0xea, 0xd4, 0x42, 0x6d, 0xc6, 0xf4, 0x53, 0xc2, 0x21, 0xae,
    0xcd, 0xd6, 0x47, 0xd8, 0x19, 0x06, 0x07, 0xeb, 0xfd, 0xcd, 0xf8, 0x1d,
    0xca, 0xda, 0xa1, 0x03, 0xf3, 0x1d, 0x06, 0x16, 0xf1, 0xe7, 0x48, 0x01,
    0xcc, 0x2b, 0x03, 0xb9, 0x6f, 0x10, 0x3b, 0x0b, 0xf0, 0xbd, 0xf6, 0xe9,
    0x0d, 0x57, 0xe9, 0x31, 0x97, 0x16, 0x08, 0xd6, 0x3e, 0x0b, 0xa8, 0xa8,
    0x17, 0x13, 0x4c, 0x13, 0xec, 0xbe, 0xcc, 0xb4, 0x05, 0x12, 0xd8, 0xec,
    0x27, 0x12, 0x44, 0xf2, 0x8e, 0xc8, 0x41, 0x17, 0xd1, 0x0c, 0xe3, 0xdb,
    0xe6, 0xf0, 0x61, 0x12, 0xeb, 0xf9, 0xf7, 0xbc, 0x42, 0x03, 0x1d, 0x32,
    0xce, 0x21, 0xe8, 0x3a, 0xde, 0x1e, 0xc7, 0xec, 0x22, 0xfd, 0x53, 0x1f,
    0x0c, 0xb9, 0x14, 0x5b, 0x73, 0xcd, 0xfc, 0xd8, 0xd6, 0xb9, 0x27, 0xf0,
    0x01, 0xb3, 0xd8, 0xe0, 0x24, 0x50, 0x01, 0xe7, 0xc2, 0x1c, 0xf4, 0xed,
    0x08, 0x5a, 0x21, 0xbc, 0x3c, 0x53, 0x10, 0xd6, 0xda, 0xda, 0x30, 0x3f,
    0x74, 0xf0, 0xea, 0xbd, 0xd9, 0x3e, 0x23, 0xc9, 0xe9, 0x16, 0xf5, 0xf0,
    0x63, 0x42, 0xb7, 0x4c, 0xe6, 0xcc, 0x3a, 0xe4, 0x15, 0x21, 0xfd, 0x08,
    0x1e, 0xfa, 0x25, 0xa3, 0xd1, 0x06, 0x33, 0xdf, 0x71, 0x3e, 0xb0, 0x8d,
    0x0f, 0xe5, 0xf3, 0x00, 0x38, 0xb3, 0x24, 0xe7, 0xdf, 0xc4, 0xea, 0x30,
    0xb9, 0xed, 0x0f, 0xd9, 0x39, 0xc1, 0x25, 0x12, 0x3d, 0x28, 0xef, 0x2a,
    0x0c, 0x1f, 0x42, 0x55, 0xde, 0xf9, 0xc5, 0xf3, 0x10, 0x22, 0xd6, 0xf0,
    0xf4, 0xfd, 0x42, 0xba, 0x64, 0xe1, 0xdd, 0xb6, 0xff, 0xf6, 0xf7, 0xa0,
    0x25, 0xf5, 0x06, 0xf3, 0x16, 0x35, 0x04, 0x31, 0xd4, 0xf1, 0xeb, 0x53,
    0x34, 0xf1, 0xbc, 0xa5, 0xb3, 0xea, 0x44, 0xd1, 0x2b, 0x39, 0x28, 0xb4,
    0x5f, 0xf0, 0x26, 0x1c, 0x21, 0x22, 0xbf, 0x16, 0xbf, 0xf6, 0x1d, 0x73,
    0xdd, 0xd1, 0x1d, 0xe5, 0xf7, 0x0b, 0x58, 0xe2, 0xf3, 0xae, 0x23, 0x05,
    0x13, 0x33, 0xfa, 0x5c, 0xf4, 0x27, 0x1d, 0x1a, 0xdc, 0xeb, 0xef, 0x9c,
    0xd6, 0x18, 0x07, 0xfb, 0xc5, 0xd5, 0x16, 0x42, 0xe4, 0xc2, 0xca, 0xbd,
    0x2d, 0x2e, 0x02, 0x13, 0xbe, 0x20, 0x13, 0x20, 0x13, 0x09, 0x40, 0x55,
    0xf1, 0xf1, 0xe2, 0xcd, 0xbb, 0x02, 0x29, 0xe4, 0xef, 0x2d, 0xdf, 0xd5,
    0xd1, 0xc9, 0x15, 0x1a, 0x2a, 0xb6, 0xcc, 0x1a, 0xea, 0xe7, 0x4d, 0xf9,
    0xfd, 0xe2, 0xe0, 0xcf, 0x32, 0x67, 0x14, 0x36, 0x13, 0xbe, 0xbf, 0x35,
    0xff, 0x1b, 0x0b, 0x21, 0xe5, 0x05, 0xcc, 0x22, 0xfa, 0xfa, 0xfc, 0xfc,
    0xdf, 0x01, 0x3f, 0x2a, 0xb4, 0xf8, 0x3c, 0x51, 0xed, 0xed, 0xe5, 0xd6,
    0x04, 0x54, 0xf4, 0x4a, 0x26, 0x31, 0x48, 0x16, 0x17, 0x17, 0xe9, 0x8e,
    0x18, 0x33, 0xb5, 0x16, 0xd1, 0x33, 0x1f, 0x35, 0xf2, 0xc2, 0x1d, 0xe8,
    0x2a, 0xaf, 0x33, 0x59, 0x1e, 0x1a, 0x26, 0x06, 0xfa, 0xd3, 0xc7, 0xea,
    0xeb, 0xcf, 0x04, 0xc2, 0xaf, 0x41, 0xb7, 0xef, 0x2d, 0xdd, 0xbe, 0x3e,
    0x0a, 0x20, 0x13, 0xd4, 0x0c, 0xfd, 0xdb, 0xf7, 0xb9, 0xd7, 0x39, 0x5a,
    0xb8, 0xf9, 0xf5, 0x32, 0xfc, 0x31, 0x59, 0x69, 0xd4, 0x41, 0xe9, 0x54,
    0xb3, 0x06, 0x23, 0x0b, 0xe3, 0x37, 0xe7, 0x6b, 0xf3, 0xca, 0xee, 0x19,
    0xd3, 0x3e, 0x06, 0x35, 0xf6, 0xfd, 0x5d, 0x22, 0xbf, 0xc3, 0x6c, 0xf2,
    0xfa, 0x67, 0xfb, 0x16, 0xd5, 0xd7, 0x4a, 0xf5, 0x15, 0x07, 0x21, 0xa4,
    0xc7, 0x02, 0x9e, 0xd7, 0x09, 0xce, 0x18, 0xc2, 0x2e, 0xba, 0xf5, 0x17,
    0xc0, 0xe9, 0x2c, 0x18, 0xc8, 0xfb, 0x07, 0xf2, 0x2e, 0x1b, 0x3b, 0x32,
    0x04, 0xee, 0xdf, 0x1c, 0x1b, 0x2e, 0xef, 0x05, 0x00, 0x3e, 0xfa, 0x1a,
    0xdb, 0xa6, 0x53, 0x2c, 0x7f, 0x8a, 0xe2, 0xe6, 0x20, 0xf9, 0x04, 0x21,
    0x06, 0xd8, 0x0a, 0x1a, 0x4d, 0x68, 0x3d, 0x38, 0xfa, 0xbf, 0xba, 0x58,
    0xa2, 0x25, 0x2e, 0xe8, 0x70, 0x0a, 0xe3, 0x31, 0xe0, 0xac, 0xee, 0x23,
    0xda, 0xff, 0x2d, 0x32, 0x09, 0xaf, 0xdd, 0xdb, 0xf9, 0xde, 0x03, 0xdb,
    0x02, 0x05, 0xcd, 0xe0, 0x02, 0x15, 0x7f, 0x52, 0xfa, 0xcb, 0x23, 0x0c,
    0x45, 0xe5, 0x43, 0x1a, 0xc2, 0xad, 0xdf, 0xdb, 0xfc, 0x1b, 0x03, 0x2a,
    0x2c, 0x17, 0x1d, 0xd0, 0x11, 0x1f, 0x39, 0xe8, 0x25, 0x07, 0xd7, 0xc7,
    0x05, 0x3f, 0x76, 0xd7, 0xf8, 0x2f, 0xfc, 0x0b, 0x2e, 0xf5, 0xfb, 0xeb,
    0xf4, 0xff, 0x13, 0x3a, 0xce, 0xe2, 0x01, 0x27, 0x1b, 0xba, 0x27, 0xf2,
    0xee, 0xf7, 0x14, 0x18, 0xf9, 0xf8, 0xff, 0x51, 0xf3, 0x23, 0x3b, 0x36,
    0x9a, 0xcd, 0xf5, 0x40, 0x5b, 0x1d, 0x0f, 0x44, 0xf2, 0x07, 0x64, 0x60,
    0xc7, 0xdb, 0x1f, 0xe2, 0x06, 0x2d, 0x3d, 0xe0, 0xa9, 0xf1, 0xf5, 0x43,
    0xc5, 0xfb, 0xf1, 0xad, 0xf8, 0x2c, 0x66, 0xd9, 0xc6, 0xad, 0x42, 0x18,
    0xf5, 0xfb, 0xcd, 0x0a, 0x03, 0x13, 0x4b, 0x3a, 0xe4, 0x0b, 0x21, 0x22,
    0x31, 0xc7, 0xfa, 0xd5, 0xed, 0xc4, 0x2e, 0xf7, 0x27, 0x02, 0xfa, 0x0c,
    0xfe, 0x45, 0x3e, 0x1c, 0x14, 0x11, 0x08, 0x12, 0xd0, 0xdb, 0xc4, 0x25,
    0x33, 0xeb, 0x67, 0x17, 0x17, 0xf1, 0x20, 0x17, 0x1a, 0xde, 0xf9, 0xb6,
    0xef, 0x02, 0x0b, 0xff, 0x29, 0xc5, 0xcc, 0x19, 0x13, 0xfd, 0x1c, 0x47,
    0xe1, 0x21, 0x34, 0x13, 0x15, 0xd4, 0xe2, 0x08, 0x13, 0x9c, 0x17, 0x4a,
    0x0b, 0x30, 0x0e, 0x4c, 0x11, 0x17, 0x0a, 0xdd, 0xfc, 0x10, 0x2d, 0x02,
    0x2d, 0xfe, 0xad, 0xd9, 0xd2, 0x25, 0x2a, 0x49, 0x0d, 0x1f, 0x47, 0x24,
    0x43, 0xf2, 0xc9, 0xf6, 0x0f, 0xc3, 0x31, 0x25, 0x28, 0xd2, 0x10, 0xdc,
    0x05, 0x0b, 0xc5, 0x00, 0xd5, 0xe7, 0x0e, 0x03, 0x43, 0x22, 0xba, 0xe0,
    0xd7, 0x06, 0x47, 0x0f, 0xcc, 0xf0, 0xe5, 0x51, 0xed, 0xeb, 0x0d, 0x17,
    0x4d, 0xbc, 0x08, 0x53, 0xd6, 0xdf, 0xaa, 0xeb, 0x13, 0xe8, 0xd1, 0x0f,
    0x1d, 0xc9, 0x56, 0x4b, 0xbc, 0xe9, 0x1e, 0x09, 0xde, 0x23, 0x5b, 0x20,
    0xde, 0x05, 0x30, 0x71, 0xa5, 0x1d, 0xef, 0xf2, 0xe4, 0x72, 0xb8, 0xe3,
    0x03, 0x2f, 0xd7, 0xb6, 0x9b, 0xbb, 0x2e, 0x5f, 0x17, 0x7a, 0x53, 0x09,
    0x27, 0x53, 0xe0, 0xb8, 0x12, 0x2f, 0xab, 0x06, 0x18, 0x52, 0xa4, 0x0a,
    0x4e, 0xeb, 0x58, 0xa0, 0xf9, 0x09, 0x53, 0x22, 0x03, 0x14, 0x17, 0xca,
    0xad, 0x69, 0xb6, 0x01, 0x22, 0x66, 0xc3, 0x43, 0x16, 0xba, 0xe4, 0xd2,
    0xe8, 0xf1, 0x24, 0x22, 0x4f, 0x42, 0x23, 0x30, 0x3b, 0xe2, 0x5f, 0xb6,
    0x2f, 0x5b, 0x1c, 0x35, 0xc1, 0x12, 0xf2, 0x26, 0xf8, 0x14, 0x44, 0x0c,
    0x7e, 0x3b, 0xf3, 0x23, 0x08, 0xc3, 0x06, 0xd8, 0x45, 0xb9, 0x2c, 0x8b,
    0x7b, 0xde, 0x1e, 0xf9, 0x19, 0xc8, 0x35, 0xda, 0x59, 0x42, 0x0a, 0x8b,
    0x4d, 0x2c, 0x1b, 0xb3, 0xe7, 0xc0, 0x47, 0xfc, 0x23, 0x08, 0xea, 0xc1,
    0xf2, 0x5b, 0xc4, 0x19, 0x3d, 0xdf, 0xd8, 0xbc, 0xcc, 0xf3, 0xbd, 0xcb,
    0x10, 0x47, 0x37, 0x58, 0x60, 0x65, 0xca, 0x09, 0x3e, 0xf6, 0x3d, 0xd2,
    0x69, 0xb3, 0x13, 0x67, 0xe8, 0x2f, 0x42, 0xd3, 0x3d, 0xef, 0x04, 0xfb,
    0x57, 0xb0, 0xaf, 0xca, 0x5a, 0x01, 0xed, 0xb4, 0x25, 0x06, 0xc0, 0x59,
    0xaa, 0x07, 0x25, 0x27, 0xb5, 0x60, 0x5a, 0xa9, 0x54, 0xf7, 0xf9, 0x2c,
    0x61, 0xf9, 0xea, 0xb0, 0x4d, 0xff, 0x13, 0x02, 0x22, 0xbf, 0x08, 0xbb,
    0x53, 0x4c, 0x98, 0x2f, 0xcb, 0x5f, 0xf0, 0x01, 0xcc, 0x57, 0x15, 0xa0,
    0x1d, 0x43, 0xbb, 0x2f, 0x3a, 0xbf, 0x89, 0x37, 0x06, 0x0a, 0xcd, 0x53,
    0x32, 0xf3, 0x2e, 0x87, 0x29, 0x20, 0x45, 0xf0, 0xd2, 0x0c, 0xc8, 0x5e,
    0xf0, 0xbf, 0xe2, 0xc9, 0xae, 0x4d, 0xb6, 0x35, 0x1b, 0x09, 0x73, 0xc8,
    0xb3, 0xc9, 0xd1, 0x30, 0x2c, 0xd6, 0x24, 0x1f, 0xd9, 0x1f, 0x94, 0x08,
    0xfe, 0x4b, 0x0a, 0x4a, 0x07, 0x18, 0xe7, 0x4b, 0xf0, 0xcb, 0x3a, 0x3b,
    0xeb, 0xfd, 0x28, 0x03, 0x9e, 0x06, 0xde, 0x04, 0x34, 0x1b, 0xa4, 0x7f,
    0x26, 0xc9, 0x98, 0x13, 0x26, 0x15, 0xef, 0x9f, 0x39, 0xb8, 0xaf, 0xe8,
    0xbb, 0x63, 0xa6, 0x54, 0xfe, 0x42, 0xcd, 0x2f, 0xd3, 0x09, 0x8e, 0x1e,
    0x00, 0x23, 0xc1, 0xf1, 0xc7, 0xe8, 0x1d, 0x72, 0x17, 0xde, 0xc7, 0x24,
    0x0d, 0x23, 0x29, 0x0b, 0x2f, 0x25, 0xac, 0x27, 0xd7, 0x6b, 0x1b, 0x90,
    0xf1, 0x56, 0xee, 0x53, 0xed, 0xcf, 0xc8, 0x1c, 0xe5, 0xc0, 0x27, 0xf3,
    0xc1, 0xe8, 0xce, 0x31, 0x17, 0xc4, 0xd2, 0xb1, 0x3c, 0xe2, 0x2a, 0xeb,
    0x50, 0xd7, 0x24, 0xee, 0xdf, 0x3c, 0xcb, 0xc5, 0xeb, 0x38, 0xe2, 0xe8,
    0xbb, 0xe3, 0xda, 0xca, 0xfc, 0x42, 0xf7, 0xca, 0x05, 0x4f, 0x12, 0x02,
    0x38, 0xdb, 0x0a, 0x36, 0x1c, 0x40, 0x29, 0xd9, 0xe7, 0xef, 0xe5, 0x32,
    0x5a, 0x10, 0xc5, 0xd0, 0x2e, 0xdf, 0x1c, 0x17, 0xbe, 0x42, 0xfa, 0xc1,
    0xb2, 0xcd, 0xc9, 0x1b, 0xc8, 0x21, 0x47, 0xf0, 0x2d, 0x19, 0xd7, 0xcf,
    0x0e, 0x1d, 0x7f, 0x0b, 0x13, 0x14, 0x12, 0x1c, 0xcc, 0x36, 0xdb, 0xa5,
    0xeb, 0x10, 0xeb, 0xe8, 0xcd, 0xd6, 0xed, 0xd3, 0x29, 0x00, 0x16, 0xcd,
    0xb3, 0x3e, 0xee, 0x46, 0x1b, 0xd3, 0xbf, 0x1d, 0x27, 0x4a, 0x1d, 0x31,
    0xdc, 0xb3, 0xc8, 0x1b, 0x16, 0x33, 0xeb, 0xc2, 0xda, 0x4f, 0x1f, 0x02,
    0xff, 0xe3, 0xe5, 0xcb, 0x27, 0xd5, 0x29, 0xeb, 0xb0, 0xe8, 0x1a, 0xf8,
    0x24, 0xd6, 0x23, 0x24, 0x21, 0xe3, 0xed, 0xff, 0xfa, 0x29, 0xcc, 0xee,
    0x0f, 0x27, 0xce, 0xe0, 0x2f, 0x0a, 0xcc, 0x27, 0xa9, 0xc0, 0xaf, 0x06,
    0xde, 0xb3, 0x05, 0xef, 0xc7, 0x36, 0xf3, 0x2e, 0xf3, 0xe9, 0x48, 0x0c,
    0xee, 0x40, 0x5f, 0xf5, 0xf7, 0xc8, 0xed, 0xf8, 0x22, 0xfa, 0xc4, 0xbd,
    0x29, 0x11, 0xe4, 0x2d, 0xee, 0xf5, 0x08, 0xd4, 0xde, 0x19, 0x33, 0x07,
    0xb1, 0xc6, 0xd4, 0x48, 0xe4, 0x33, 0x1f, 0xbd, 0x41, 0xdf, 0x22, 0xff,
    0xee, 0xc9, 0xfa, 0xca, 0x32, 0xe5, 0xd4, 0xde, 0xfe, 0x46, 0xc8, 0x27,
    0xea, 0x0c, 0x30, 0xc2, 0x5b, 0x10, 0xda, 0xf0, 0x1e, 0x38, 0x36, 0x39,
    0xf5, 0xe4, 0xef, 0x00, 0xed, 0x04, 0x51, 0x16, 0x24, 0xfa, 0x0e, 0xed,
    0xd9, 0x47, 0x12, 0x9f, 0x20, 0x20, 0x1b, 0xd1, 0x90, 0x2d, 0x55, 0x13,
    0xe1, 0x1d, 0x19, 0x51, 0xfb, 0xc1, 0xf2, 0xf4, 0xf8, 0x19, 0x0c, 0xab,
    0x27, 0x0c, 0xb5, 0x31, 0x6d, 0xa6, 0xd3, 0xd6, 0xee, 0xf3, 0x25, 0xc4,
    0xd7, 0x19, 0xdd, 0x3d, 0xfb, 0x13, 0xd1, 0x44, 0x25, 0xbe, 0x2c, 0x3d,
    0x09, 0x42, 0xe2, 0x35, 0xe7, 0x21, 0xdb, 0xc4, 0x1f, 0x05, 0x21, 0x53,
    0x0c, 0xcb, 0xc9, 0xf1, 0xc4, 0x53, 0xf4, 0xa0, 0x25, 0x16, 0xd7, 0xb6,
    0xaf, 0xe5, 0xd8, 0x2a, 0x10, 0xd2, 0xdd, 0x18, 0xb0, 0xfd, 0x50, 0x50,
    0x0c, 0xb4, 0x98, 0x13, 0x6e, 0x41, 0x4f, 0x49, 0x11, 0xcc, 0x04, 0x18,
    0x1b, 0x32, 0x28, 0xb2, 0x45, 0xce, 0x20, 0x31, 0xaa, 0xb6, 0xfc, 0x0b,
    0xe6, 0xdf, 0xb9, 0x59, 0xaf, 0x15, 0x33, 0x30, 0xe7, 0xbf, 0xdd, 0x3e,
    0x38, 0xfd, 0x5f, 0xde, 0x04, 0xe4, 0xe6, 0xd2, 0x03, 0x57, 0xd4, 0xbd,
    0x10, 0xe4, 0xe1, 0x02, 0xcb, 0xb7, 0xc1, 0x2f, 0x0c, 0x0b, 0x22, 0xc6,
    0xb9, 0xfb, 0x67, 0xfb, 0xbd, 0xb1, 0x05, 0x20, 0x65, 0x28, 0x2b, 0x1c,
    0x3a, 0xbc, 0xbe, 0xa9, 0x32, 0x22, 0xd9, 0xbc, 0x09, 0x5a, 0x0a, 0x3a,
    0xab, 0xd2, 0x05, 0xf6, 0x11, 0xcb, 0x19, 0xb4, 0xe3, 0x20, 0x2c, 0x26,
    0xc7, 0xc7, 0xd1, 0xe0, 0x76, 0x29, 0x4f, 0x12, 0x02, 0xb2, 0xb7, 0xb6,
    0x3e, 0x22, 0xf1, 0xcd, 0x65, 0x0e, 0x05, 0xe4, 0x81, 0xdb, 0xf0, 0xf8,
    0xd1, 0xd2, 0xd6, 0x42, 0xfd, 0xc9, 0xfa, 0x36, 0xe0, 0x1f, 0x3f, 0x1b,
    0x44, 0xe1, 0x74, 0x21, 0xfa, 0x1d, 0xd5, 0x0f, 0x2e, 0x25, 0x21, 0xe3,
    0x2f, 0xf2, 0x09, 0x07, 0xf1, 0xa6, 0x18, 0xbe, 0x35, 0xb3, 0xbb, 0x0e,
    0xf6, 0x32, 0x1a, 0x01, 0xd6, 0xbc, 0x11, 0xb4, 0x54, 0xfc, 0x08, 0x16,
    0xd0, 0x42, 0xc5, 0x45, 0x0b, 0x1d, 0xe3, 0xa4, 0x02, 0xd8, 0x0a, 0x14,
    0xc2, 0xa2, 0x3d, 0xee, 0xfc, 0x11, 0x1e, 0x16, 0xc5, 0xf6, 0x79, 0x43,
    0x3b, 0x0a, 0xc7, 0xb7, 0x22, 0x32, 0xf5, 0x14, 0x3a, 0x99, 0xd2, 0x53,
    0xda, 0xd2, 0xfa, 0xf5, 0xac, 0x3a, 0xea, 0xf6, 0xdf, 0x0a, 0xfe, 0xda,
    0xe3, 0xfd, 0xb1, 0x10, 0xcb, 0xf0, 0x40, 0x3e, 0xbb, 0x07, 0xd9, 0x22,
    0x0c, 0x07, 0x0c, 0x53, 0x31, 0x35, 0xb5, 0x25, 0x0d, 0x1a, 0x97, 0x9d,
    0xd5, 0x25, 0x9b, 0x07, 0xe8, 0xe6, 0xf9, 0x3b, 0xb8, 0xba, 0xc3, 0x22,
    0xb5, 0x13, 0x0c, 0x4b, 0xec, 0xf5, 0xf9, 0x1d, 0x20, 0x24, 0x0a, 0x32,
    0x0c, 0x22, 0xe8, 0x19, 0xf7, 0x4c, 0xd1, 0xcc, 0x10, 0x4b, 0x05, 0xf8,
    0xde, 0x0d, 0xfb, 0x19, 0x2b, 0xaa, 0x16, 0xce, 0xe1, 0xd4, 0xf2, 0x3d,
    0xfc, 0xfe, 0x08, 0x35, 0x1b, 0x06, 0x76, 0x0f, 0x21, 0xd5, 0xc5, 0x35,
    0xf0, 0x12, 0xd0, 0x9f, 0x33, 0xf9, 0xff, 0x08, 0x83, 0x23, 0x30, 0xe9,
    0x43, 0xc9, 0xbd, 0xf1, 0xfc, 0x26, 0xf1, 0x14, 0xff, 0x09, 0x18, 0xcf,
    0xf1, 0x0e, 0x35, 0x1f, 0xff, 0xba, 0x24, 0x15, 0xe4, 0x46, 0xd8, 0xd7,
    0xcc, 0xfc, 0x0f, 0x0e, 0xb1, 0xdc, 0x0d, 0x04, 0x39, 0xe3, 0xf3, 0xcb,
    0x06, 0xd4, 0xf2, 0xfe, 0xd8, 0x2f, 0x22, 0xca, 0xe8, 0xe9, 0x51, 0xe8,
    0xf8, 0xfe, 0x0c, 0xc7, 0x38, 0x3e, 0xae, 0x9a, 0xd3, 0x0d, 0xbd, 0x0b,
    0xfb, 0x08, 0xe1, 0xf5, 0x23, 0xdb, 0x10, 0xbc, 0xc5, 0xfc, 0xf6, 0x38,
    0x0e, 0x23, 0x11, 0xec, 0x3d, 0x27, 0x0f, 0x1f, 0x28, 0xb7, 0xfd, 0x30,
    0xf7, 0x12, 0x0e, 0xc5, 0x10, 0x1f, 0xf2, 0x35, 0xd6, 0xbb, 0xf0, 0xe9,
    0x2c, 0xd6, 0xed, 0xf4, 0xc8, 0x49, 0x2f, 0xf6, 0x0d, 0xf6, 0x13, 0xe8,
    0x7f, 0x13, 0x23, 0x09, 0x4a, 0xe5, 0xdd, 0xf8, 0xf3, 0x25, 0x14, 0xb1,
    0xe0, 0xed, 0xe2, 0x32, 0xb8, 0xa5, 0xc5, 0x2d, 0x4a, 0xe2, 0x36, 0xa9,
    0xcc, 0x17, 0x07, 0xed, 0x11, 0x06, 0x2a, 0xec, 0x17, 0x3f, 0x14, 0xfc,
    0x38, 0xf2, 0xd9, 0x26, 0x4f, 0x3e, 0xb3, 0xa0, 0x28, 0x45, 0x22, 0x4d,
    0xda, 0xaa, 0xfa, 0x0f, 0x1b, 0xdd, 0x46, 0x15, 0xd3, 0x0b, 0xea, 0x63,
    0x30, 0xea, 0xdc, 0xff, 0xf2, 0x1b, 0x74, 0x0c, 0xfb, 0xc7, 0xbe, 0x0e,
    0x3a, 0xfa, 0x9b, 0x99, 0x13, 0x47, 0x16, 0x40, 0xbc, 0x1b, 0xc9, 0x39,
    0x38, 0x52, 0x38, 0xd3, 0xf3, 0xbc, 0x4e, 0xb1, 0xce, 0xe4, 0x31, 0x35,
    0x35, 0xe8, 0x08, 0x43, 0xe1, 0x0d, 0xee, 0xfb, 0x05, 0x2f, 0xd6, 0xe8,
    0xfb, 0x07, 0x29, 0x32, 0xd7, 0x09, 0x1a, 0x24, 0x11, 0x21, 0xbc, 0x39,
    0x22, 0xdb, 0x1b, 0xc8, 0xa5, 0xe4, 0xf2, 0xef, 0x10, 0xd3, 0x17, 0x13,
    0x28, 0xff, 0x4d, 0xd0, 0xbf, 0x1c, 0xf2, 0xd6, 0xe9, 0xf5, 0x37, 0xfd,
    0x33, 0xe8, 0xf9, 0x64, 0x29, 0xf3, 0xe2, 0x32, 0xd6, 0xe3, 0xfc, 0xb6,
    0xce, 0xbe, 0x38, 0xff, 0xdf, 0xeb, 0xc6, 0x0e, 0xd5, 0xfb, 0x3a, 0x2c,
    0xd0, 0x13, 0xe5, 0xff, 0xf6, 0x07, 0xf6, 0x05, 0xf9, 0xbf, 0x24, 0xea,
    0x36, 0x2b, 0xd3, 0xf6, 0xf1, 0xeb, 0xf5, 0x15, 0x9b, 0x39, 0x3a, 0x2b,
    0xd7, 0x3d, 0xce, 0x51, 0x34, 0x27, 0x52, 0x04, 0x2f, 0x0e, 0xd1, 0xb6,
    0x45, 0xf5, 0x05, 0xe0, 0xd4, 0xc9, 0xd6, 0x07, 0x1a, 0x27, 0x0f, 0xfa,
    0xb9, 0xda, 0xe9, 0xbf, 0xd6, 0xd0, 0x2f, 0xeb, 0x13, 0x24, 0xbc, 0x3c,
    0x20, 0xf7, 0x39, 0x43, 0xc1, 0xcf, 0x47, 0x15, 0x46, 0x0d, 0xfc, 0x3e,
    0xcf, 0x00, 0x26, 0x3b, 0x3a, 0x98, 0xb0, 0xdd, 0x47, 0xd1, 0x4c, 0xf3,
    0xf0, 0xe2, 0x3f, 0x17, 0x0e, 0xf6, 0x30, 0x23, 0x0e, 0xf9, 0x3b, 0x09,
    0x10, 0x23, 0x63, 0xcd, 0xd9, 0xf2, 0x06, 0x46, 0xde, 0x19, 0xe1, 0x44,
    0xc2, 0xff, 0x3a, 0xd3, 0x09, 0xce, 0x42, 0xcb, 0xf0, 0xcd, 0xc8, 0xc1,
    0xd5, 0xe3, 0x20, 0xff, 0x18, 0x21, 0xef, 0x2e, 0x17, 0x00, 0xe6, 0xed,
    0x24, 0x04, 0xc8, 0x49, 0x07, 0x09, 0x40, 0x35, 0xd0, 0xe8, 0xcd, 0x12,
    0xcf, 0x2e, 0x30, 0xe1, 0xac, 0xd1, 0x20, 0x22, 0xdc, 0x3b, 0xda, 0xd9,
    0x03, 0x57, 0xe5, 0xd1, 0xf3, 0xb7, 0x35, 0x03, 0x33, 0xea, 0x0c, 0x15,
    0x15, 0x21, 0x33, 0x06, 0xff, 0x93, 0x09, 0x0a, 0x49, 0xe0, 0x28, 0x18,
    0xbb, 0xef, 0x1e, 0xd0, 0x06, 0x0e, 0xfb, 0x7f, 0x08, 0xee, 0x4a, 0xf7,
    0xac, 0x14, 0xf2, 0x25, 0xb3, 0x2f, 0xc3, 0x24, 0x01, 0xed, 0xd0, 0xf5,
    0x12, 0x06, 0xe3, 0x18, 0xc3, 0xdc, 0x43, 0x05, 0xf2, 0x21, 0x07, 0xc9,
    0x2a, 0x02, 0x53, 0x0b, 0x35, 0x2f, 0xd1, 0xf7, 0x06, 0x10, 0xe9, 0x9f,
    0xc6, 0x39, 0x03, 0x08, 0xcd, 0xe2, 0x11, 0x18, 0x1a, 0x09, 0xde, 0x00,
    0xc6, 0x39, 0xe6, 0x28, 0x03, 0xd1, 0xc2, 0xe6, 0x31, 0x32, 0xd7, 0x36,
    0x4d, 0x05, 0xd3, 0x0c, 0xe8, 0xf3, 0x07, 0xad, 0xf3, 0x5d, 0xde, 0x08,
    0xe4, 0xfc, 0xbd, 0xe2, 0x12, 0x09, 0xe2, 0xbc, 0xc3, 0xf5, 0xe7, 0x5d,
    0x09, 0xc3, 0xeb, 0xfd, 0x4f, 0x0c, 0x5f, 0x44, 0x23, 0x1a, 0xca, 0x37,
    0xf9, 0x3a, 0xb5, 0xc2, 0xf0, 0x05, 0xdd, 0x02, 0xd4, 0xee, 0x0b, 0xc9,
    0x40, 0x06, 0x14, 0x12, 0xbb, 0x20, 0x34, 0xed, 0xeb, 0x26, 0x10, 0xc2,
    0x3c, 0xf2, 0x16, 0xf6, 0xfd, 0xc7, 0xd4, 0x35, 0x1e, 0x01, 0xbf, 0xcb,
    0x03, 0x42, 0xeb, 0x40, 0xb5, 0xd4, 0xe5, 0xdc, 0xcd, 0xb0, 0xe4, 0xc8,
    0xe4, 0x2e, 0x23, 0x3f, 0xdd, 0xd4, 0xec, 0xd6, 0x3d, 0x4c, 0x26, 0x38,
    0x34, 0x16, 0x1b, 0x03, 0x16, 0x11, 0x13, 0x81, 0xb5, 0x05, 0x14, 0xe9,
    0xfe, 0xc3, 0x20, 0xc5, 0x35, 0xe5, 0x26, 0xd0, 0xeb, 0xeb, 0x2e, 0x44,
    0x22, 0x02, 0xe1, 0x03, 0x4c, 0xf9, 0x3c, 0xf8, 0x15, 0xdd, 0x29, 0x21,
    0xf3, 0x3b, 0xfb, 0xe7, 0x4b, 0xe3, 0xd6, 0x17, 0xd2, 0xf7, 0xef, 0x0f,
    0x1b, 0x98, 0x01, 0xea, 0xcc, 0xe5, 0x2a, 0x38, 0xf6, 0x4b, 0x4b, 0xe2,
    0x6c, 0x5a, 0x22, 0xfa, 0x4c, 0xeb, 0xee, 0xe7, 0x22, 0x1f, 0xe4, 0xc8,
    0x2e, 0x02, 0xd0, 0x31, 0xe2, 0xee, 0xf5, 0x0c, 0x28, 0x03, 0x3a, 0xd7,
    0x18, 0xe1, 0xf1, 0x45, 0xfa, 0xda, 0x0b, 0xcf, 0x16, 0x22, 0x09, 0x4c,
    0x18, 0xd3, 0xe0, 0xd5, 0xfb, 0x28, 0xb5, 0x82, 0x03, 0x13, 0xe2, 0x07,
    0xdf, 0xa1, 0xdd, 0xcd, 0x34, 0xb2, 0x37, 0x17, 0xf3, 0x21, 0x2b, 0xf6,
    0x4a, 0x30, 0xcc, 0xf2, 0x51, 0x4e, 0x14, 0x12, 0xf1, 0xf7, 0xff, 0xf9,
    0x24, 0x0b, 0x9d, 0xdf, 0x28, 0xe4, 0x27, 0x4c, 0xee, 0xc0, 0xd0, 0xd4,
    0xdc, 0x11, 0xf3, 0xed, 0x1f, 0xe9, 0x19, 0x18, 0x9d, 0xbb, 0x0c, 0x03,
    0x1c, 0x03, 0x23, 0x19, 0x3a, 0xd9, 0x1c, 0xd0, 0xfb, 0xe1, 0x2f, 0x0f,
    0xe1, 0xef, 0xf1, 0x36, 0x2f, 0xfd, 0xf6, 0xc7, 0xe4, 0x12, 0x27, 0xf1,
    0xc7, 0xd6, 0xd3, 0x1e, 0xb8, 0xd1, 0xf3, 0x4f, 0xd7, 0x04, 0xf0, 0x06,
    0xdb, 0x34, 0x56, 0x03, 0xcf, 0x33, 0x10, 0x2c, 0x45, 0x06, 0x04, 0xc7,
    0x15, 0xc6, 0x56, 0x3e, 0xbe, 0xce, 0xeb, 0x3a, 0x33, 0xff, 0x38, 0xf6,
    0xe8, 0x0a, 0x49, 0xde, 0x4f, 0x07, 0xdd, 0x3c, 0x26, 0x4c, 0x32, 0xea,
    0x9f, 0xcb, 0xf8, 0xdc, 0x09, 0xb9, 0x22, 0x38, 0x2b, 0xcd, 0x62, 0x52,
    0xe9, 0x18, 0xea, 0xe7, 0x60, 0x4f, 0x4e, 0x0f, 0xaa, 0xd5, 0x02, 0x38,
    0xe1, 0x4b, 0x99, 0xfc, 0x13, 0x33, 0x79, 0x0a, 0xd3, 0xbe, 0x04, 0xe6,
    0x37, 0x1f, 0xf4, 0x23, 0x0d, 0xd5, 0x1b, 0xed, 0xd1, 0xf9, 0xed, 0xc7,
    0x27, 0xbd, 0x1a, 0x0f, 0xd5, 0x25, 0x2a, 0xcc, 0x36, 0x3e, 0xca, 0xef,
    0x05, 0x2c, 0x1e, 0x25, 0xb8, 0xf3, 0x48, 0xed, 0x20, 0x0b, 0x05, 0x3d,
    0x3f, 0x0a, 0x42, 0x3a, 0xa5, 0xb3, 0x0e, 0x1a, 0x25, 0xb3, 0xe3, 0x1a,
    0xca, 0xca, 0x0b, 0xdd, 0x1c, 0xdf, 0xd3, 0x5d, 0xda, 0x47, 0x1b, 0xf2,
    0xdc, 0xe6, 0x09, 0xe2, 0x5d, 0xc7, 0xdb, 0x04, 0x10, 0xcb, 0x09, 0x77,
    0x03, 0xdb, 0x38, 0xf3, 0xf4, 0xfb, 0xe2, 0xd9, 0xc4, 0x14, 0x40, 0x56,
    0x3f, 0x01, 0xcc, 0x0a, 0xe9, 0x63, 0x11, 0x3d, 0x2a, 0xf4, 0xe4, 0x30,
    0x44, 0xd0, 0x08, 0xe8, 0x19, 0x0f, 0x03, 0xef, 0xca, 0x06, 0x14, 0x1e,
    0xeb, 0xbb, 0x18, 0x12, 0xde, 0x98, 0x3d, 0xd4, 0x45, 0xf1, 0x08, 0x0e,
    0xac, 0x3c, 0x1c, 0xf4, 0x08, 0x0a, 0x02, 0x57, 0xf6, 0x1d, 0xc7, 0xd0,
    0x2f, 0x0a, 0x22, 0x1f, 0xc4, 0xba, 0x0c, 0xfe, 0x42, 0xa2, 0x40, 0xa9,
    0x28, 0xf3, 0x7f, 0xf3, 0x1d, 0xf3, 0xf4, 0xe7, 0xc9, 0x53, 0x36, 0x49,
    0xbf, 0xe2, 0x54, 0x3a, 0x07, 0x5d, 0xb5, 0x16, 0xbe, 0x2e, 0x2a, 0x5f,
    0x23, 0xf1, 0x17, 0xf3, 0x1e, 0xf3, 0x17, 0x27, 0xc9, 0xe0, 0xb5, 0x38,
    0xfc, 0x5d, 0x0d, 0xf5, 0x27, 0x33, 0x0a, 0x1c, 0xcb, 0x09, 0xb6, 0xbf,
    0xb2, 0x0c, 0xed, 0xdc, 0xad, 0x25, 0xd1, 0x51, 0x33, 0xe6, 0x0b, 0x16,
    0xa5, 0x02, 0x2f, 0xd6, 0x36, 0x1f, 0x0b, 0xff, 0x24, 0xf3, 0x5a, 0xe3,
    0x46, 0x30, 0xe0, 0x1e, 0xb1, 0xf1, 0xf5, 0xc3, 0xf1, 0x7f, 0xb5, 0xc6,
    0xf1, 0xf8, 0x00, 0xdd, 0xdb, 0xd6, 0x21, 0xe1, 0xd6, 0x29, 0x4e, 0x29,
    0x0a, 0xdf, 0xef, 0x23, 0x55, 0x41, 0x4a, 0x0e, 0x02, 0x1a, 0xa4, 0xeb,
    0xf2, 0xdd, 0xde, 0xa7, 0xf8, 0x2d, 0x9d, 0xf3, 0xdb, 0xd8, 0x12, 0x2f,
    0xbe, 0xb0, 0xf4, 0x29, 0x0c, 0xf4, 0x47, 0xef, 0xd6, 0xdf, 0x37, 0xe5,
    0x75, 0x0c, 0x45, 0x24, 0x02, 0x15, 0xbd, 0x1f, 0xf9, 0x1f, 0x13, 0xcf,
    0xd2, 0x30, 0xb2, 0x13, 0xfc, 0xe6, 0x33, 0x2d, 0xe3, 0xf5, 0xd7, 0xc8,
    0x0a, 0x59, 0x30, 0x42, 0xd3, 0x1f, 0xf6, 0x0d, 0x34, 0x27, 0xe7, 0x05,
    0x04, 0xfd, 0xfa, 0xed, 0xed, 0x1f, 0xe7, 0xbb, 0x20, 0x6c, 0xe0, 0x1c,
    0xc1, 0xec, 0xcd, 0xa7, 0xd8, 0xc0, 0xdc, 0xda, 0x15, 0x4e, 0xd9, 0xfe,
    0xea, 0xc4, 0x20, 0x26, 0x24, 0x61, 0x76, 0xfe, 0xff, 0x06, 0xd1, 0xcc,
    0x18, 0x2f, 0x1f, 0xcb, 0xe9, 0x40, 0xc5, 0x53, 0xdc, 0xb5, 0xe7, 0xb8,
    0x02, 0xdd, 0xfa, 0xc9, 0xe0, 0x03, 0x33, 0x22, 0x2f, 0x28, 0x19, 0x11,
    0x54, 0x2e, 0x4b, 0x43, 0x3c, 0xe2, 0x07, 0xcd, 0xe8, 0x18, 0xd0, 0xc1,
    0xd0, 0x07, 0xf1, 0x33, 0xd2, 0xba, 0xf5, 0xa1, 0x0c, 0xbb, 0x29, 0xb9,
    0xde, 0x23, 0x43, 0x3b, 0x52, 0xdf, 0x35, 0xbb, 0xf5, 0x09, 0x0b, 0x29,
    0x34, 0x0c, 0xf2, 0x06, 0xfd, 0x6f, 0x19, 0xcb, 0xe0, 0x51, 0xdd, 0x1d,
    0xf2, 0x07, 0xf0, 0xcb, 0x51, 0xc3, 0x28, 0xfc, 0xa5, 0xcd, 0x12, 0x5a,
    0x2d, 0xa0, 0x0e, 0xce, 0x70, 0x35, 0x12, 0x48, 0x10, 0x02, 0xf7, 0xe4,
    0x16, 0x4b, 0xd4, 0xb6, 0x31, 0xf4, 0x64, 0xf6, 0xd6, 0x2f, 0xe8, 0xb0,
    0x32, 0x24, 0x57, 0x18, 0xe2, 0x01, 0x0a, 0x21, 0x1d, 0x3d, 0x07, 0x34,
    0xdb, 0xf4, 0xa3, 0xf3, 0x19, 0xea, 0x09, 0x01, 0x22, 0xfb, 0x26, 0x59,
    0x1c, 0x0a, 0x0d, 0xb6, 0xea, 0x41, 0x20, 0xda, 0xc1, 0x03, 0x4c, 0x1a,
    0x35, 0xee, 0xdb, 0xb9, 0x18, 0x12, 0xdd, 0x13, 0xd0, 0xd2, 0xa6, 0x22,
    0x16, 0x20, 0xd9, 0xfc, 0xe6, 0xfe, 0xf9, 0x32, 0xf4, 0xc4, 0x06, 0x03,
    0xfe, 0x18, 0xe8, 0xb1, 0xec, 0x1d, 0x5e, 0x04, 0x36, 0xc8, 0x97, 0xc6,
    0x0c, 0x0c, 0x34, 0x29, 0x05, 0x0c, 0xf4, 0xb1, 0xee, 0x19, 0xe3, 0x23,
    0x38, 0x15, 0x0d, 0x2a, 0x1f, 0xf5, 0x50, 0xd6, 0x0e, 0x15, 0x38, 0xeb,
    0x13, 0x32, 0x20, 0xbf, 0xe3, 0x37, 0x0a, 0xf9, 0x1d, 0x10, 0xc2, 0x09,
    0xd1, 0xd6, 0xeb, 0xe3, 0x1a, 0x2f, 0xed, 0x21, 0x0e, 0xce, 0x20, 0x40,
    0x03, 0x35, 0x48, 0xd9, 0x44, 0x4b, 0xfa, 0xf4, 0xde, 0x17, 0x1d, 0x0d,
    0x07, 0x22, 0xda, 0x0a, 0x1b, 0xd1, 0xd6, 0x4e, 0xb9, 0xd4, 0xca, 0xb9,
    0x11, 0x44, 0xe4, 0x0e, 0x1f, 0xc9, 0xec, 0x46, 0xed, 0xe2, 0x32, 0x18,
    0x17, 0x14, 0xfa, 0xce, 0x03, 0x4d, 0x37, 0x51, 0x21, 0x2e, 0xcc, 0xf4,
    0x43, 0xda, 0x32, 0xe5, 0xa4, 0xbf, 0xaa, 0xd5, 0xdd, 0x3c, 0xf9, 0x18,
    0x3b, 0x14, 0x42, 0x32, 0xe0, 0xcd, 0x5f, 0x39, 0x3c, 0x65, 0x09, 0x2b,
    0xf3, 0x32, 0xd7, 0xc3, 0x05, 0x18, 0xc8, 0x0e, 0xe6, 0xf5, 0xf0, 0x11,
    0xed, 0x81, 0xe0, 0xfb, 0x13, 0x3e, 0xdb, 0xef, 0xe1, 0xc4, 0xe1, 0x5a,
    0xe5, 0x0a, 0x14, 0x32, 0x0b, 0x50, 0xdf, 0xd8, 0x00, 0x33, 0x1e, 0x2c,
    0x39, 0xd5, 0x0b, 0x04, 0x0b, 0x12, 0xd9, 0x15, 0xb5, 0xbd, 0xfb, 0xcb,
    0xe1, 0x1f, 0xff, 0x33, 0x0c, 0x0b, 0x40, 0x05, 0xfb, 0xac, 0xf7, 0xea,
    0x48, 0x78, 0xf9, 0x09, 0xe8, 0x04, 0x1a, 0x3a, 0x39, 0xf5, 0xea, 0xc8,
    0xe1, 0x27, 0xdf, 0xd6, 0xd1, 0xd2, 0xd1, 0xf3, 0x0e, 0x19, 0x29, 0xfd,
    0xd3, 0xab, 0x01, 0x28, 0x15, 0x6a, 0xa7, 0x45, 0xe9, 0xf2, 0x3f, 0x3d,
    0x34, 0x15, 0x23, 0x6e, 0x93, 0x10, 0x67, 0x22, 0xba, 0xd1, 0x29, 0x2a,
    0x1d, 0x1d, 0x38, 0x2f, 0xf7, 0x5a, 0xe6, 0x33, 0x4b, 0xed, 0xec, 0x86,
    0xdc, 0xf3, 0x06, 0xec, 0x06, 0xef, 0xfa, 0x60, 0xa9, 0x1c, 0x98, 0xef,
    0xd4, 0xfe, 0x15, 0x7f, 0xc1, 0xb7, 0xd6, 0xf7, 0xed, 0x64, 0x25, 0x4d,
    0xca, 0xcc, 0xbe, 0xb3, 0xfc, 0x65, 0xef, 0xb0, 0x21, 0x1c, 0xf8, 0xc3,
    0x18, 0xe8, 0xcb, 0xe8, 0x5c, 0xe0, 0x9a, 0xcc, 0xee, 0xf2, 0x7c, 0x7a,
    0xd8, 0xb3, 0x0e, 0xf9, 0x62, 0x34, 0x2e, 0xfe, 0xec, 0x3c, 0x18, 0x3a,
    0xd5, 0x00, 0xcf, 0xe1, 0x1a, 0xb1, 0xed, 0x00, 0xeb, 0xaf, 0xe1, 0xdb,
    0x0f, 0xa5, 0x39, 0x06, 0x99, 0xf5, 0x1a, 0x59, 0xbf, 0x4c, 0xd6, 0xf8,
    0x3f, 0xfe, 0x06, 0x3d, 0x00, 0x34, 0xd5, 0x2a, 0x9e, 0x11, 0x15, 0xec,
    0xe7, 0x2e, 0x33, 0x23, 0x0a, 0x9b, 0xc6, 0xd9, 0x06, 0xc2, 0xdd, 0x4f,
    0xbd, 0x2c, 0x31, 0x1c, 0x09, 0xb5, 0x37, 0xee, 0xff, 0x23, 0x21, 0x2c,
    0xc2, 0x1b, 0x24, 0xeb, 0x0f, 0x12, 0xe3, 0x83, 0x71, 0x36, 0xed, 0x3c,
    0x04, 0x26, 0xfd, 0x03, 0x16, 0x87, 0xea, 0xe2, 0xef, 0x08, 0x67, 0x29,
    0x2b, 0xd6, 0x28, 0x2e, 0xfb, 0x02, 0xf2, 0x49, 0x2e, 0x17, 0xda, 0xd6,
    0x1b, 0x3a, 0xbb, 0xfa, 0x3a, 0xff, 0xc5, 0x2b, 0xe4, 0xba, 0xc5, 0xff,
    0x13, 0xcb, 0xb0, 0x4b, 0xda, 0xd3, 0x24, 0x0b, 0x1e, 0xfc, 0x10, 0xf5,
    0x68, 0x04, 0x20, 0x35, 0xf9, 0xed, 0x1c, 0x19, 0x07, 0xf0, 0xcc, 0xd7,
    0x3a, 0x23, 0x14, 0xc5, 0xe0, 0x11, 0x2f, 0x44, 0x32, 0x14, 0x03, 0x88,
    0x0c, 0x19, 0x6a, 0xfd, 0xdc, 0x2a, 0x5f, 0xe1, 0x33, 0x28, 0xfd, 0xce,
    0x3d, 0xf7, 0xbe, 0x04, 0x21, 0x6c, 0xe8, 0xde, 0x77, 0xb2, 0x21, 0xec,
    0xf6, 0xde, 0x57, 0xed, 0x57, 0x8f, 0xf6, 0xd6, 0x28, 0xbf, 0xf8, 0xf6,
    0xe5, 0xe4, 0xe2, 0xdd, 0x10, 0x14, 0x4d, 0xff, 0x12, 0x1b, 0xb5, 0xdf,
    0xab, 0x55, 0x3d, 0xf9, 0x56, 0x08, 0x3d, 0x31, 0xe7, 0x16, 0x16, 0xcf,
    0xe1, 0x20, 0x28, 0xf6, 0x23, 0x0b, 0xe7, 0xf5, 0xc0, 0x0b, 0x1e, 0x28,
    0xc1, 0x03, 0xcb, 0xab, 0x0f, 0xc8, 0x57, 0x06, 0x27, 0xe1, 0x4e, 0x3e,
    0xfd, 0x1d, 0x6f, 0xea, 0xe6, 0xbc, 0x26, 0xde, 0xe9, 0x04, 0x4f, 0xf2,
    0x04, 0x0e, 0x17, 0xed, 0x11, 0xc8, 0x3e, 0xde, 0xc8, 0xf2, 0xc2, 0xc4,
    0x16, 0xe3, 0x42, 0x42, 0xef, 0x0b, 0x4d, 0x26, 0x11, 0xca, 0x13, 0x09,
    0xd6, 0x22, 0x34, 0x31, 0x0c, 0x27, 0x07, 0x05, 0x2e, 0xe3, 0xbd, 0xeb,
    0x21, 0xc9, 0x44, 0x2e, 0xf7, 0xc0, 0xc3, 0x2a, 0xbd, 0xf6, 0x43, 0x19,
    0xd3, 0x03, 0x26, 0x23, 0x23, 0x02, 0x55, 0xea, 0x19, 0xf5, 0x10, 0x4e,
    0x2e, 0x25, 0xfb, 0xce, 0x58, 0xdf, 0xd4, 0xeb, 0xf9, 0xb5, 0x4b, 0x27,
    0xc5, 0x0a, 0xad, 0xab, 0xf7, 0x36, 0xff, 0x41, 0xe6, 0x1a, 0x4c, 0x22,
    0xf5, 0xca, 0x49, 0x11, 0x3c, 0x31, 0x54, 0x03, 0x01, 0xf3, 0x29, 0x2a,
    0x3d, 0x15, 0x1b, 0x07, 0xdc, 0xec, 0x14, 0x06, 0x3f, 0x0a, 0xab, 0xe6,
    0x2f, 0x11, 0x3c, 0x20, 0xf5, 0xac, 0x10, 0xff, 0xdb, 0xb9, 0x2e, 0xf7,
    0x2c, 0xeb, 0x49, 0x1c, 0xa5, 0xfa, 0x31, 0x01, 0x11, 0xf5, 0xe6, 0xcb,
    0x07, 0xd6, 0x15, 0xe8, 0xe4, 0xff, 0xf3, 0x0f, 0xf1, 0x53, 0x3f, 0x3a,
    0xdc, 0xbc, 0x51, 0x3e, 0xc8, 0xf6, 0x25, 0xee, 0x0e, 0xc4, 0x39, 0x2f,
    0x33, 0x57, 0xe6, 0x1a, 0x47, 0x48, 0xa9, 0xd5, 0x2f, 0x04, 0xe2, 0x09,
    0x29, 0xca, 0xbf, 0xff, 0xe2, 0x02, 0x3a, 0x04, 0x1a, 0xb4, 0x45, 0x2c,
    0x27, 0xf2, 0x03, 0x3b, 0x26, 0x1f, 0x1a, 0x5f, 0xdc, 0x38, 0xe5, 0xd8,
    0xee, 0xf2, 0xbf, 0xea, 0x0c, 0xf3, 0x22, 0xd4, 0xf8, 0x05, 0x2a, 0xc4,
    0xda, 0x35, 0x41, 0xde, 0xc9, 0xd7, 0x32, 0x7f, 0x0e, 0xcb, 0x2e, 0x03,
    0x0e, 0x2a, 0x24, 0xea, 0xea, 0xd3, 0xe3, 0x53, 0x16, 0xba, 0xfd, 0xf1,
    0x22, 0xd2, 0x4c, 0x46, 0xf8, 0x03, 0xdd, 0x05, 0xac, 0x54, 0x11, 0xe9,
    0xe1, 0x0a, 0xe8, 0x45, 0xe4, 0x0c, 0xb6, 0x2f, 0xe6, 0xd5, 0xd8, 0x0e,
    0x2c, 0xce, 0xd4, 0xef, 0xc7, 0x3b, 0x2f, 0x22, 0xc0, 0x3d, 0x0f, 0x14,
    0xf6, 0xf4, 0x01, 0x54, 0x34, 0x00, 0x12, 0xeb, 0x39, 0x21, 0xc5, 0xaf,
    0xee, 0x0c, 0xdc, 0x21, 0xc0, 0xf2, 0xc6, 0x37, 0xf0, 0xc5, 0xe2, 0xf8,
    0xa5, 0xd3, 0x1f, 0x37, 0xe4, 0x03, 0xef, 0xea, 0x0e, 0x28, 0x63, 0x10,
    0x02, 0xff, 0xed, 0xe9, 0xfe, 0x36, 0xde, 0xaf, 0xce, 0x57, 0x1b, 0xdd,
    0x1c, 0xe1, 0xfa, 0xfb, 0x3a, 0xed, 0xee, 0xc3, 0xb5, 0x1b, 0xfe, 0x62,
    0xfd, 0xec, 0xd5, 0x06, 0x2a, 0xfc, 0x20, 0xf7, 0x02, 0xcc, 0xe5, 0xe8,
    0xfe, 0x13, 0xdc, 0x98, 0xe4, 0x35, 0xeb, 0xe1, 0xfb, 0xfa, 0x07, 0xd9,
    0x26, 0xb8, 0xd2, 0xca, 0x95, 0xe2, 0xf6, 0xdc, 0xd1, 0x19, 0x4a, 0xd9,
    0x2d, 0x0c, 0x26, 0x34, 0x43, 0xd9, 0xc6, 0x29, 0x0d, 0x4b, 0xce, 0x9b,
    0x2b, 0x2c, 0x12, 0x43, 0xb2, 0xe5, 0x1a, 0xc6, 0x3a, 0xdd, 0xdf, 0x99,
    0xc5, 0x21, 0x09, 0x4f, 0x02, 0x13, 0xba, 0xd0, 0xdf, 0x34, 0xd8, 0x10,
    0xfb, 0xc7, 0x17, 0xd2, 0xfe, 0xf0, 0xb0, 0xae, 0xe9, 0x54, 0xc9, 0x52,
    0xcb, 0xb8, 0x06, 0x16, 0x7f, 0xb2, 0x35, 0xf5, 0xb5, 0x2c, 0x10, 0x4d,
    0x09, 0x15, 0xd6, 0xf5, 0xe5, 0x46, 0x1a, 0x2e, 0x20, 0xa8, 0x04, 0xd3,
    0x3e, 0xfd, 0xbd, 0xb4, 0x07, 0xc7, 0xe1, 0x48, 0xe1, 0x01, 0xc6, 0xb0,
    0x12, 0x0b, 0x15, 0xa5, 0xdc, 0xce, 0x6f, 0xea, 0x2f, 0x3f, 0x5a, 0x16,
    0x6d, 0x6a, 0x20, 0xd9, 0x12, 0x09, 0x27, 0x43, 0x16, 0x62, 0xa8, 0xe8,
    0x07, 0xe4, 0x18, 0x12, 0xc9, 0xe3, 0xda, 0x1c, 0x40, 0xba, 0x22, 0xf6,
    0xea, 0x46, 0xfa, 0xd5, 0xe1, 0xc9, 0xeb, 0xb8, 0x11, 0x0d, 0x41, 0x0a,
    0x00, 0xe7, 0x20, 0xfd, 0x12, 0x0c, 0xd9, 0x9e, 0x21, 0xfa, 0xfe, 0xde,
    0x08, 0xff, 0x0b, 0x01, 0xfd, 0xa3, 0xe8, 0xf1, 0x2a, 0x0a, 0xea, 0x3a,
    0x2a, 0x1f, 0x03, 0xfa, 0x47, 0xed, 0x71, 0x00, 0x31, 0xa6, 0xe4, 0xef,
    0x31, 0x4b, 0xda, 0xa7, 0x03, 0x24, 0x1d, 0x93, 0xdf, 0x63, 0x05, 0xba,
    0x79, 0x23, 0x25, 0xa9, 0xcd, 0x34, 0xda, 0x47, 0x3a, 0x18, 0x06, 0xe4,
    0x30, 0xfe, 0x48, 0xf0, 0x54, 0x14, 0xee, 0x39, 0x3d, 0x0f, 0xac, 0x1d,
    0x14, 0xaf, 0x02, 0x45, 0xdd, 0x4e, 0xe9, 0xfd, 0x2d, 0x0f, 0x38, 0xcf,
    0xc6, 0xd2, 0xc4, 0xe6, 0xe1, 0xd7, 0x03, 0xc8, 0x24, 0xb9, 0x21, 0xd5,
    0x16, 0xec, 0xb6, 0xd5, 0x63, 0xd4, 0x07, 0x43, 0x1c, 0xeb, 0x13, 0x28,
    0x29, 0x1e, 0xfd, 0x0a, 0x1b, 0xf6, 0x62, 0xaa, 0xfc, 0x07, 0xad, 0x14,
    0x19, 0x0d, 0xf9, 0x27, 0xb6, 0xf0, 0xdf, 0x01, 0x2f, 0xed, 0x9d, 0xbd,
    0x3a, 0xcb, 0xef, 0xea, 0x16, 0x07, 0xdd, 0x05, 0x0d, 0x2d, 0x16, 0xeb,
    0xe5, 0x3e, 0x20, 0xd0, 0x90, 0x02, 0x3c, 0x65, 0x45, 0x12, 0xd7, 0x37,
    0x34, 0xfb, 0x18, 0x1c, 0x09, 0xbf, 0xb4, 0xbc, 0x49, 0xdf, 0xd2, 0xeb,
    0xc0, 0x41, 0x0c, 0xf5, 0xc8, 0x5a, 0x17, 0xc3, 0x58, 0xc0, 0x3e, 0x22,
    0xb3, 0x0a, 0xd2, 0xdb, 0xe4, 0xeb, 0xc7, 0xc4, 0xe1, 0xce, 0xff, 0xe2,
    0x59, 0xb6, 0x24, 0x44, 0x39, 0xd7, 0xd2, 0x0a, 0xbf, 0x1e, 0x26, 0x20,
    0x24, 0x00, 0xed, 0xc9, 0x03, 0xf6, 0x3d, 0xf4, 0x13, 0x63, 0x45, 0x05,
    0x2a, 0x3e, 0xdf, 0x2f, 0xc5, 0x36, 0x25, 0xd0, 0x47, 0xf3, 0xc2, 0xca,
    0x68, 0x2c, 0xe7, 0xf2, 0xe7, 0x1e, 0x15, 0x25, 0xaf, 0x4e, 0xcc, 0xd3,
    0x03, 0x04, 0x22, 0xbc, 0xfb, 0xc1, 0x19, 0xfe, 0x2c, 0x54, 0xff, 0x21,
    0x0f, 0xd1, 0xf2, 0xff, 0x10, 0xe8, 0x3e, 0x41, 0x07, 0xe3, 0xf7, 0xed,
    0xd4, 0x24, 0x30, 0xd7, 0xf6, 0x02, 0xac, 0x06, 0x4a, 0x03, 0x55, 0x08,
    0x0e, 0xe0, 0xbc, 0xd2, 0xbf, 0x43, 0xbe, 0xed, 0xc2, 0xb7, 0xb6, 0x07,
    0x3f, 0xad, 0xcb, 0x45, 0x34, 0x05, 0xc4, 0xde, 0xc0, 0xa8, 0x0d, 0xc4,
    0x0c, 0x7f, 0xf1, 0x2e, 0x2c, 0x1a, 0x4c, 0x2d, 0x23, 0x6a, 0x0b, 0xe3,
    0xf8, 0xd2, 0xb6, 0xab, 0xda, 0x17, 0xdc, 0xf1, 0x5e, 0xdd, 0xf9, 0xde,
    0x4c, 0x20, 0xc1, 0x08, 0x00, 0xca, 0x7f, 0xd7, 0x2b, 0xf2, 0x1f, 0x07,
    0xe2, 0x21, 0x3c, 0xaa, 0xb9, 0x3d, 0xe3, 0x05, 0x40, 0x28, 0xe3, 0x00,
    0xdb, 0xdc, 0xdf, 0x03, 0x10, 0xd6, 0xd9, 0x1d, 0x21, 0xec, 0x2f, 0x49,
    0xfb, 0x15, 0x43, 0xef, 0x1f, 0xe7, 0xe3, 0xc8, 0x1b, 0x2c, 0x0c, 0x25,
    0x14, 0x0f, 0x1a, 0xce, 0x34, 0x0d, 0xd5, 0x17, 0xdc, 0x00, 0xcc, 0xe5,
    0xde, 0xcd, 0x11, 0xed, 0x2d, 0xc7, 0x48, 0x40, 0x21, 0x06, 0x0d, 0xb2,
    0x1e, 0xfc, 0x0a, 0xdc, 0x0f, 0x0c, 0x05, 0xee, 0xfa, 0x15, 0xec, 0xc0,
    0x53, 0xfa, 0x15, 0x1f, 0xaf, 0xc7, 0xd9, 0xe0, 0xd9, 0x29, 0x07, 0x06,
    0x1c, 0xe7, 0x25, 0x44, 0x16, 0xed, 0x27, 0xe7, 0x3a, 0x00, 0xf5, 0xc1,
    0xfc, 0x18, 0x46, 0xe1, 0xfd, 0x13, 0xe1, 0xcb, 0x18, 0x29, 0xf6, 0xff,
    0xc3, 0xf3, 0x11, 0xfe, 0xef, 0x0f, 0xd5, 0xea, 0xf4, 0xcd, 0xdc, 0x67,
    0x29, 0x13, 0x57, 0xf5, 0x1b, 0x31, 0xf6, 0x20, 0xec, 0xee, 0xdf, 0x2f,
    0x25, 0x36, 0x1c, 0xae, 0x48, 0xe1, 0x1b, 0x4d, 0xf4, 0x17, 0x0f, 0xdd,
    0xc0, 0xfe, 0x00, 0x17, 0x40, 0xd7, 0x49, 0x51, 0x09, 0xb0, 0xf5, 0xe6,
    0x30, 0x07, 0x16, 0x22, 0xf8, 0x47, 0x42, 0x49, 0x4b, 0x14, 0xd4, 0xed,
    0x4b, 0x3d, 0x05, 0x23, 0xe9, 0x08, 0xf0, 0x05, 0xf1, 0x05, 0xf1, 0xe5,
    0x03, 0xbd, 0xcd, 0x48, 0xe1, 0xe9, 0x4f, 0xff, 0x2d, 0x59, 0xc1, 0xe6,
    0x2e, 0xf1, 0x31, 0xfa, 0xe0, 0xe6, 0xee, 0xf9, 0xe3, 0x27, 0xfa, 0xec,
    0xa4, 0x8b, 0x00, 0xef, 0xf0, 0x33, 0x03, 0x0e, 0xff, 0xed, 0x17, 0x2b,
    0x13, 0xd1, 0x14, 0x02, 0x0d, 0x27, 0x17, 0xcf, 0x05, 0x3c, 0x05, 0xe1,
    0x1b, 0x01, 0xee, 0xf4, 0x02, 0xd9, 0xbf, 0xed, 0xf1, 0xf6, 0x11, 0x03,
    0xd2, 0x43, 0xd3, 0x2f, 0xd8, 0xc4, 0x4f, 0x47, 0x1b, 0xc6, 0x3f, 0xef,
    0xf9, 0x36, 0xfc, 0x14, 0xe4, 0x10, 0x16, 0x18, 0x54, 0x0c, 0x0c, 0xf9,
    0x23, 0xf8, 0x2f, 0x08, 0xe8, 0xb8, 0xa0, 0xc5, 0xe1, 0x2c, 0xf8, 0xfb,
    0xfd, 0xf9, 0xf9, 0xe4, 0x27, 0x26, 0x2f, 0x01, 0xdd, 0x94, 0x57, 0xed,
    0xab, 0x03, 0xf4, 0xa4, 0x2f, 0x2a, 0xed, 0xe9, 0xc1, 0xf4, 0xe8, 0xf3,
    0xf8, 0x0c, 0xac, 0x10, 0x4c, 0x49, 0x71, 0x00, 0xa8, 0xf1, 0x46, 0x0f,
    0x42, 0x12, 0x16, 0x34, 0xe7, 0xbd, 0x2e, 0xdc, 0xc7, 0xe5, 0x17, 0x04,
    0x24, 0x2f, 0x0c, 0x21, 0x19, 0xfc, 0x20, 0x35, 0xdb, 0x12, 0xb9, 0xc1,
    0xf7, 0xfa, 0x6c, 0x43, 0xee, 0xdd, 0x47, 0x2f, 0xb3, 0xc8, 0xdb, 0x33,
    0xe6, 0xa0, 0x7f, 0x5b, 0xa0, 0x19, 0x31, 0x21, 0x46, 0x02, 0xf9, 0x25,
    0x2a, 0x9a, 0xf9, 0x0d, 0x40, 0xdb, 0xdf, 0x79, 0xdb, 0x1f, 0x52, 0x15,
    0xac, 0x45, 0x4c, 0xf7, 0x42, 0xb7, 0x48, 0x24, 0xfb, 0xca, 0x69, 0x1e,
    0xc5, 0x29, 0x0d, 0xe2, 0x60, 0x47, 0x18, 0xd7, 0x12, 0xa0, 0x13, 0x12,
    0x0d, 0x3a, 0x9b, 0xd5, 0xb8, 0x15, 0x7d, 0x0a, 0xce, 0x07, 0x41, 0x05,
    0x32, 0x06, 0xd2, 0x4a, 0x4d, 0x1a, 0xe9, 0x33, 0x17, 0xc8, 0x00, 0x46,
    0x2f, 0xae, 0x15, 0xda, 0xce, 0xf3, 0x48, 0xee, 0x52, 0xea, 0xeb, 0x2d,
    0xc5, 0xfe, 0x26, 0x4c, 0xdd, 0xb8, 0x18, 0x20, 0xb9, 0x02, 0xda, 0xf9,
    0x27, 0xe7, 0x1e, 0x58, 0xfc, 0x10, 0xf4, 0x31, 0x19, 0x1e, 0xe7, 0xc9,
    0x15, 0xff, 0x52, 0xf3, 0xf8, 0xd2, 0xcf, 0x59, 0x12, 0x2d, 0x47, 0x26,
    0xb9, 0x10, 0x05, 0x60, 0x18, 0xf7, 0x2e, 0xe1, 0x17, 0x0b, 0x4a, 0x3e,
    0xb6, 0x3c, 0xf5, 0xf8, 0x2b, 0x22, 0xb1, 0x18, 0xf2, 0xf5, 0x11, 0x20,
    0xfe, 0xdf, 0x03, 0xcc, 0xd1, 0x6c, 0xf9, 0xfc, 0x15, 0xa2, 0xcf, 0x43,
    0x0f, 0x17, 0x18, 0x38, 0x42, 0xf7, 0x43, 0x32, 0xdf, 0x09, 0x2d, 0xc4,
    0xc8, 0x21, 0xd4, 0xdb, 0xd4, 0xb4, 0x24, 0x55, 0xe5, 0xed, 0xfc, 0xe9,
    0xea, 0x4d, 0x18, 0xfa, 0x31, 0xf2, 0xda, 0x2b, 0xcb, 0xad, 0x21, 0x30,
    0x11, 0x2a, 0x63, 0x1c, 0x0d, 0xce, 0xd0, 0x09, 0xff, 0x8a, 0xbe, 0xdc,
    0x1a, 0x15, 0x05, 0x51, 0xf8, 0xd7, 0xf9, 0xe4, 0x82, 0x58, 0x53, 0xeb,
    0xea, 0xfb, 0xf7, 0x3e, 0x36, 0xb5, 0x5d, 0xd3, 0xb4, 0x5d, 0xe1, 0x84,
    0x02, 0x43, 0x3a, 0xde, 0xd7, 0x3f, 0xaf, 0x1c, 0x51, 0x30, 0xf8, 0xb0,
    0x1f, 0xc1, 0xde, 0x14, 0xdf, 0xe3, 0x0a, 0xb8, 0x4d, 0x34, 0x9e, 0x47,
    0x2b, 0x9e, 0x56, 0xe2, 0xce, 0x09, 0x12, 0xf2, 0xc8, 0x3f, 0x6e, 0xc1,
    0xda, 0xe8, 0xcf, 0xe3, 0x00, 0xec, 0x1d, 0x1e, 0xdc, 0xde, 0xa8, 0xf1,
    0x05, 0x2b, 0x93, 0x12, 0x1b, 0xdf, 0x2f, 0x33, 0x2d, 0xd2, 0x56, 0xe5,
    0x26, 0x25, 0xee, 0xd1, 0xfe, 0xe8, 0x54, 0xd2, 0x35, 0xef, 0xea, 0x3b,
    0x40, 0xd7, 0x16, 0x49, 0x06, 0x10, 0xc9, 0xae, 0x1f, 0x11, 0xea, 0xfc,
    0xe0, 0x1f, 0x38, 0x46, 0x14, 0xc4, 0x35, 0xc9, 0xce, 0x38, 0xfe, 0xa0,
    0x4a, 0x3b, 0xe3, 0x1f, 0x17, 0xd4, 0x1d, 0x48, 0x62, 0x06, 0xe9, 0xb3,
    0x0d, 0xb2, 0xdc, 0x19, 0xed, 0x13, 0x14, 0xcb, 0x2a, 0x24, 0xc0, 0x29,
    0x1d, 0x2f, 0xf3, 0xbb, 0x28, 0x54, 0x2c, 0x18, 0x4d, 0x2b, 0x3b, 0xbf,
    0xd2, 0x2b, 0xe6, 0xbc, 0xf6, 0xf9, 0xd9, 0x49, 0xe8, 0xfb, 0xc3, 0xfc,
    0x35, 0x04, 0x0a, 0xd9, 0x60, 0x04, 0xe0, 0xfa, 0xb4, 0xf3, 0x08, 0xfd,
    0xc9, 0x59, 0xb7, 0xf1, 0xdd, 0x5e, 0x59, 0xd6, 0xf5, 0xee, 0xf6, 0x08,
    0xf7, 0xeb, 0x0b, 0x19, 0x00, 0xf8, 0xd7, 0x97, 0x13, 0x0b, 0x1d, 0xec,
    0xe2, 0xd2, 0xcc, 0x50, 0xfa, 0x02, 0x2d, 0xf8, 0x36, 0x78, 0xdd, 0xf0,
    0x49, 0xd9, 0xa0, 0x22, 0xb2, 0x21, 0xba, 0x17, 0x26, 0x3f, 0xf0, 0xe3,
    0x12, 0x81, 0xe7, 0xe6, 0x2c, 0xd7, 0x23, 0x24, 0xd1, 0x36, 0x17, 0xf2,
    0xca, 0xca, 0x5a, 0x3f, 0xfd, 0xe7, 0x01, 0x13, 0x36, 0xe5, 0x16, 0xe3,
    0xfc, 0x4f, 0x0b, 0xb8, 0xf1, 0xda, 0x97, 0x24, 0xab, 0xd3, 0xb7, 0xcc,
    0xe4, 0x5b, 0xb0, 0x3b, 0xf6, 0xd9, 0xeb, 0x3c, 0x8a, 0x2f, 0x2e, 0x18,
    0x12, 0x6b, 0xa9, 0xf8, 0xca, 0x7b, 0x60, 0x1d, 0xb7, 0x17, 0x1a, 0x01,
    0xfb, 0x38, 0xa8, 0x08, 0x91, 0x24, 0x29, 0xb5, 0x42, 0xdb, 0xcb, 0x35,
    0x65, 0xf1, 0x21, 0x18, 0xfe, 0xfc, 0x9e, 0xed, 0xf6, 0x29, 0xce, 0xcc,
    0xf3, 0xc3, 0x02, 0xcc, 0xaf, 0xe6, 0x55, 0x5d, 0x30, 0x06, 0x14, 0xca,
    0x48, 0x1f, 0x7f, 0x4a, 0x3f, 0x44, 0xad, 0xfd, 0xc6, 0x0d, 0xb1, 0xd1,
    0xbe, 0xf8, 0xd0, 0xf6, 0xc9, 0x0e, 0xfd, 0xd1, 0x0a, 0x09, 0x3a, 0xd7,
    0xcb, 0x04, 0xcd, 0x1f, 0xe1, 0x3a, 0xd6, 0x07, 0x15, 0x19, 0x22, 0xd2,
    0x31, 0xc4, 0x99, 0xf6, 0x28, 0x3c, 0xe2, 0xc9, 0xf4, 0x4e, 0xce, 0xf8,
    0xbf, 0x3b, 0xb6, 0x2d, 0xf4, 0xf5, 0xf2, 0x2f, 0x17, 0x02, 0x1a, 0x1c,
    0x29, 0xfe, 0xdc, 0x2c, 0x14, 0xc7, 0x00, 0xb2, 0x1a, 0xc0, 0xd6, 0xf7,
    0x2f, 0x68, 0x0a, 0xd7, 0x3f, 0xd9, 0x07, 0x56, 0xb2, 0x32, 0xe0, 0xd2,
    0x03, 0x30, 0x14, 0xcb, 0xa3, 0x06, 0xdd, 0x54, 0x16, 0xfb, 0xc6, 0x07,
    0x41, 0x0c, 0x34, 0x25, 0x56, 0xb6, 0xfb, 0x1a, 0xdc, 0x64, 0xd9, 0xf2,
    0xe3, 0x17, 0xda, 0x4c, 0x02, 0x00, 0x1c, 0xd1, 0x57, 0xc9, 0x1d, 0xc3,
    0x8c, 0x02, 0xeb, 0x2d, 0x16, 0xd0, 0xb8, 0x03, 0x3a, 0x51, 0xd0, 0x10,
    0x2d, 0xcf, 0x13, 0x24, 0x28, 0x03, 0xef, 0xd6, 0x15, 0x19, 0xee, 0xf4,
    0xd4, 0x24, 0x2e, 0xb4, 0x28, 0x51, 0x23, 0xe8, 0x13, 0x1d, 0xdd, 0x49,
    0x14, 0xcc, 0x09, 0xb5, 0xd9, 0x27, 0x3f, 0xcb, 0x45, 0x13, 0x31, 0x07,
    0x58, 0x4d, 0x9d, 0xfd, 0xfa, 0x0a, 0xff, 0xe0, 0xab, 0xe4, 0x29, 0xb5,
    0x35, 0xf2, 0x0f, 0xbd, 0xe0, 0x42, 0x56, 0xe7, 0x0c, 0x13, 0x49, 0xbf,
    0x44, 0xeb, 0x4a, 0x17, 0x37, 0xad, 0xdb, 0xdc, 0x04, 0x31, 0x96, 0xcc,
    0x18, 0x58, 0xd1, 0x3a, 0xb0, 0xd1, 0xf4, 0x01, 0x61, 0xdd, 0x38, 0x00,
    0x8b, 0x0d, 0xf6, 0xfc, 0x2c, 0x1b, 0xa5, 0x0a, 0xeb, 0xfd, 0x5a, 0xf3,
    0xfc, 0x03, 0x13, 0xbb, 0x62, 0x20, 0xe6, 0xb5, 0x15, 0x32, 0x03, 0x18,
    0xdf, 0xfb, 0xf9, 0xfd, 0x07, 0xde, 0x37, 0xca, 0xd8, 0x39, 0xb6, 0x74,
    0xcd, 0x3c, 0xfb, 0x14, 0x2c, 0xe4, 0x28, 0x28, 0x69, 0x14, 0x2e, 0xa9,
    0xdc, 0x1d, 0xc7, 0xbd, 0xea, 0xe4, 0x4e, 0xcb, 0x01, 0x6e, 0xf8, 0xeb,
    0x45, 0xeb, 0x54, 0x4d, 0xb4, 0xe9, 0x0c, 0x3f, 0x13, 0x2f, 0xf0, 0xf8,
    0x19, 0xef, 0x0c, 0xd3, 0xff, 0xd5, 0xd2, 0x1a, 0xfb, 0xd7, 0xc9, 0x52,
    0x19, 0xc7, 0x3c, 0xbf, 0x0a, 0x2e, 0x1e, 0xd4, 0x42, 0xee, 0x4a, 0xc6,
    0x1e, 0xde, 0xb6, 0xe4, 0x45, 0xea, 0xd1, 0x16, 0xf4, 0x04, 0xd1, 0x29,
    0xdb, 0x04, 0xb8, 0x2f, 0x55, 0x2b, 0x11, 0x3a, 0xfe, 0x9b, 0x35, 0xba,
    0x32, 0x47, 0xcc, 0xba, 0x07, 0x12, 0xe1, 0x1a, 0x1c, 0x31, 0x0c, 0x06,
    0x3b, 0xd5, 0x00, 0x26, 0x0f, 0xd9, 0x81, 0xaa, 0x63, 0x09, 0xd8, 0xf3,
    0x1f, 0x38, 0x17, 0xeb, 0x4d, 0x34, 0x64, 0x10, 0xf0, 0x41, 0xdf, 0xa5,
    0x19, 0x32, 0xd1, 0xb9, 0xc0, 0x49, 0xb7, 0x14, 0x40, 0xe0, 0x12, 0xc6,
    0xd3, 0xed, 0x3a, 0xb3, 0x05, 0x51, 0x09, 0x08, 0x2d, 0x0d, 0xdc, 0xff,
    0x05, 0xb4, 0x08, 0xc3, 0x30, 0x3d, 0xdc, 0xc3, 0x36, 0x04, 0x28, 0xda,
    0xcc, 0x2b, 0xbb, 0xbc, 0x13, 0x2d, 0xe0, 0xd9, 0xb4, 0xc1, 0xd5, 0xc5,
    0xea, 0x2b, 0x01, 0x10, 0x4d, 0x0e, 0xfa, 0x29, 0xc9, 0x1b, 0xfc, 0x27,
    0xe0, 0x4b, 0x34, 0x2f, 0x34, 0xf4, 0x4a, 0xd2, 0x08, 0x4d, 0x27, 0xbe,
    0x4e, 0xd9, 0xdf, 0x38, 0xf1, 0x17, 0xf9, 0x8e, 0x57, 0x06, 0xd4, 0x03,
    0x75, 0x03, 0x2b, 0x47, 0x3b, 0x2d, 0x30, 0x1f, 0xb3, 0x70, 0xca, 0x9b,
    0x13, 0x62, 0xfd, 0xc3, 0xf7, 0x5a, 0xcb, 0x70, 0xfc, 0xd9, 0xc4, 0xfd,
    0xf3, 0x8e, 0xd6, 0x06, 0x29, 0x2d, 0xed, 0x42, 0x38, 0x31, 0xd6, 0x35,
    0xa6, 0x11, 0xef, 0x2d, 0xbd, 0x0f, 0x22, 0xc3, 0x66, 0x53, 0xf0, 0x09,
    0x23, 0x1b, 0x2f, 0x41, 0xce, 0xf7, 0xbc, 0x3c, 0x95, 0xa7, 0xda, 0x19,
    0x42, 0x17, 0x93, 0x33, 0xde, 0x45, 0x19, 0xef, 0xc7, 0xb9, 0x63, 0xde,
    0x32, 0x3b, 0x02, 0xf7, 0xd8, 0x1f, 0x43, 0x46, 0xd6, 0x64, 0xbc, 0x06,
    0xf3, 0xd3, 0xfb, 0xf9, 0xb5, 0x9e, 0x9c, 0xc0, 0x26, 0x0a, 0xfa, 0xd4,
    0x3f, 0xe9, 0x24, 0xa7, 0x17, 0x29, 0xee, 0xf6, 0x17, 0xbb, 0xca, 0xed,
    0xcd, 0x2e, 0xe3, 0x2d, 0xf3, 0x0b, 0x35, 0x1e, 0xc7, 0xec, 0xdc, 0xb0,
    0x18, 0x0c, 0x15, 0x3f, 0x66, 0xe8, 0xb1, 0xea, 0x25, 0x16, 0x1d, 0x96,
    0xc2, 0xed, 0x2b, 0x41, 0xcf, 0x0e, 0xdd, 0x37, 0x4e, 0xe5, 0x40, 0xda,
    0x09, 0xbf, 0x41, 0xff, 0xdc, 0x49, 0xc0, 0xba, 0x24, 0x60, 0x47, 0x48,
    0x5e, 0xe6, 0xd3, 0x1a, 0xd1, 0xf8, 0x07, 0xa7, 0x09, 0x26, 0xc0, 0x00,
    0xe1, 0xc8, 0x24, 0xca, 0xdc, 0xbf, 0xa6, 0xda, 0x34, 0xe1, 0x32, 0x5e,
    0x19, 0xee, 0x43, 0xf1, 0x3c, 0x04, 0xe1, 0x02, 0x0a, 0xeb, 0xfa, 0xc2,
    0x3f, 0x51, 0xc0, 0xca, 0x30, 0x60, 0xea, 0xf2, 0xb3, 0xd5, 0x07, 0x3e,
    0xe6, 0x25, 0xfc, 0xc1, 0x08, 0xec, 0x05, 0x34, 0x24, 0xcc, 0x11, 0x1b,
    0x48, 0x27, 0x31, 0xdf, 0x54, 0xff, 0x18, 0xed, 0x3a, 0x34, 0xe7, 0x81,
    0xcb, 0x45, 0x36, 0xd1, 0xcc, 0xee, 0xd2, 0xc6, 0x39, 0x12, 0x10, 0xf8,
    0xb3, 0x22, 0xe7, 0x14, 0x29, 0xe4, 0x3c, 0xb6, 0xfd, 0xf9, 0xf4, 0x27,
    0xe4, 0x31, 0x16, 0xcc, 0xe8, 0xcd, 0xf4, 0x1e, 0x18, 0xcd, 0xbc, 0x19,
    0x97, 0x39, 0xfc, 0x26, 0x03, 0xca, 0x2b, 0xea, 0xeb, 0x1c, 0x26, 0x12,
    0x0b, 0x43, 0xd0, 0x39, 0x6e, 0x20, 0x67, 0x33, 0x1c, 0xf3, 0xbd, 0x9f,
    0x3c, 0xd1, 0x23, 0xa9, 0x3e, 0x33, 0xf6, 0xea, 0xfd, 0x93, 0x49, 0x0b,
    0x4e, 0x0a, 0xdf, 0x44, 0xa8, 0x3a, 0x21, 0x11, 0x37, 0x09, 0x4e, 0x1f,
    0x53, 0x07, 0x6c, 0xe4, 0xd9, 0x03, 0xf3, 0xba, 0xf1, 0xf9, 0xbb, 0xc6,
    0x36, 0xf2, 0xe3, 0xe8, 0xba, 0xb3, 0xe3, 0x22, 0x18, 0xfa, 0xb9, 0xc6,
    0xd0, 0xfa, 0x37, 0x31, 0x0c, 0xda, 0x23, 0x09, 0x04, 0x72, 0x3b, 0x13,
    0x40, 0xf5, 0xeb, 0x1c, 0xd7, 0x1a, 0x1c, 0xd7, 0x3e, 0x4c, 0xbc, 0xbc,
    0xe5, 0x2f, 0x1c, 0xd0, 0x4d, 0xfa, 0xc8, 0xbc, 0xd0, 0x49, 0x4f, 0x65,
    0xdb, 0x2d, 0x2a, 0x19, 0x2d, 0x07, 0xdf, 0x4e, 0x06, 0x0d, 0x17, 0xa0,
    0xd4, 0x1f, 0xda, 0xc5, 0xee, 0x0f, 0x24, 0xab, 0x39, 0x09, 0xd6, 0xc6,
    0x2d, 0x10, 0xb8, 0x4e, 0xcb, 0xda, 0xf5, 0xd0, 0xc1, 0x4a, 0x56, 0xba,
    0x12, 0xf9, 0xfe, 0x32, 0x40, 0xbe, 0xae, 0xe6, 0xe7, 0x58, 0xbe, 0x21,
    0x47, 0x44, 0xb8, 0x3f, 0xba, 0x6a, 0x2a, 0xa6, 0x20, 0x2f, 0x09, 0xba,
    0xcd, 0x3d, 0x11, 0x0e, 0xdc, 0xf6, 0xa8, 0xd3, 0x4c, 0x13, 0x4d, 0xa6,
    0x42, 0xcf, 0xda, 0x42, 0x20, 0xda, 0xf6, 0x2a, 0x1b, 0xec, 0x35, 0xe1,
    0xfd, 0x1b, 0x15, 0xbc, 0xea, 0x3b, 0xdf, 0x17, 0xd8, 0x60, 0x2d, 0x66,
    0xff, 0xc5, 0xc6, 0xb3, 0x17, 0xf7, 0xca, 0xc5, 0x1c, 0x2d, 0xfb, 0x10,
    0x5d, 0xfb, 0xd2, 0x22, 0x1f, 0x1f, 0x2d, 0xb1, 0xc1, 0x0a, 0xfa, 0xef,
    0xdc, 0x23, 0xff, 0xa7, 0xfa, 0xd2, 0x28, 0x31, 0xf3, 0xf2, 0xe7, 0xd0,
    0x13, 0xee, 0x4f, 0xbf, 0x4f, 0x0c, 0xfe, 0xdf, 0xd8, 0x38, 0xcf, 0xb9,
    0x06, 0x27, 0x34, 0xcf, 0x41, 0xe7, 0x27, 0xa6, 0x11, 0x2a, 0x0b, 0xb2,
    0xec, 0x11, 0xda, 0x23, 0x50, 0xb5, 0xa2, 0xc7, 0x21, 0xdb, 0x5b, 0x03,
    0xc5, 0xb5, 0xfb, 0xc7, 0x14, 0x48, 0xd5, 0xef, 0x53, 0x0c, 0x21, 0x46,
    0xde, 0x70, 0x4f, 0xa5, 0xf4, 0x1e, 0xea, 0x95, 0xca, 0x27, 0xbb, 0x79,
    0x3f, 0xcc, 0x31, 0xee, 0xd0, 0xe2, 0x24, 0xb2, 0xce, 0xc1, 0xd3, 0xe5,
    0x7f, 0x3e, 0x17, 0x07, 0x2e, 0x4b, 0xbf, 0xbb, 0xed, 0x70, 0xc8, 0xe1,
    0xb9, 0xe2, 0xe5, 0x00, 0x2e, 0x4f, 0x28, 0x19, 0x1b, 0xba, 0x52, 0x0f,
    0x05, 0xcf, 0xcd, 0xf0, 0xdd, 0xee, 0xfd, 0x0e, 0x28, 0xeb, 0xe4, 0xf6,
    0x12, 0x4c, 0xf3, 0x2a, 0xd8, 0xc1, 0xbe, 0xfe, 0xf0, 0xfe, 0xba, 0xf6,
    0x9b, 0x0c, 0xea, 0x71, 0xe5, 0x23, 0x50, 0x08, 0x22, 0xad, 0xd2, 0xd3,
    0xcc, 0xde, 0x0c, 0xbc, 0x13, 0xd0, 0xdb, 0xf8, 0x47, 0x34, 0x52, 0xea,
    0xea, 0x64, 0xcf, 0x88, 0xdb, 0xf5, 0x54, 0x20, 0x34, 0x62, 0x8c, 0x44,
    0x37, 0xc2, 0xd5, 0x14, 0xbf, 0xe8, 0xe9, 0x36, 0x62, 0xd7, 0x3c, 0xeb,
    0x22, 0xe4, 0x15, 0xda, 0x28, 0xb7, 0x06, 0x96, 0x32, 0x67, 0xdd, 0xbe,
    0xef, 0xe9, 0xdd, 0xfd, 0xf2, 0x19, 0x2a, 0x47, 0x7f, 0xfb, 0xc3, 0x35,
    0xcf, 0xab, 0xe9, 0xfc, 0xd9, 0x1c, 0x14, 0x1c, 0x4c, 0xd4, 0xd0, 0x11,
    0x06, 0xd2, 0x2c, 0x21, 0x0e, 0x58, 0xed, 0x09, 0xf3, 0x2d, 0x1d, 0xf4,
    0x11, 0xeb, 0xfa, 0xbf, 0x57, 0xea, 0xb1, 0xc7, 0xbf, 0xea, 0x07, 0xcd,
    0x3c, 0xf0, 0xfe, 0xbc, 0x56, 0xe6, 0x43, 0x34, 0xf7, 0xcc, 0xdb, 0x11,
    0x26, 0x39, 0x2c, 0xcb, 0x04, 0x1b, 0x13, 0x24, 0x0f, 0xea, 0x12, 0x0b,
    0x39, 0xd8, 0x10, 0x25, 0x1c, 0xbf, 0xba, 0xa5, 0x23, 0xc8, 0xf7, 0xf1,
    0x24, 0x61, 0xee, 0x57, 0x28, 0xbb, 0x2f, 0xd6, 0xef, 0x4f, 0xbb, 0xb7,
    0x5b, 0x4c, 0xfc, 0xec, 0xfd, 0x0a, 0xdb, 0x4a, 0x7a, 0x04, 0x20, 0xaf,
    0xe2, 0x00, 0xf6, 0x01, 0xd8, 0x0d, 0xff, 0x24, 0xfc, 0x0d, 0xb9, 0x6b,
    0xbd, 0xeb, 0xe4, 0x2b, 0xf8, 0xf8, 0x21, 0xf5, 0x36, 0xf1, 0x10, 0xd2,
    0xb2, 0x06, 0x29, 0x1a, 0x27, 0x0c, 0x18, 0x37, 0xc7, 0xce, 0x0c, 0x10,
    0x19, 0x0b, 0xed, 0xcb, 0x6e, 0xe5, 0x08, 0x01, 0xab, 0x36, 0xf0, 0x07,
    0x45, 0x4f, 0xdb, 0xd0, 0xc3, 0x02, 0x47, 0x30, 0xd8, 0x2b, 0x24, 0x22,
    0xfa, 0xc9, 0xc7, 0x4f, 0xc1, 0xd5, 0x04, 0xa8, 0x23, 0x41, 0xa4, 0xb1,
    0x70, 0x3a, 0xd8, 0x36, 0xd2, 0xe8, 0x43, 0xfa, 0x23, 0x5e, 0x17, 0x04,
    0x6d, 0x32, 0x19, 0xda, 0xea, 0xcb, 0x2c, 0xca, 0x1f, 0x36, 0x14, 0x2d,
    0xb5, 0xe6, 0xf9, 0xa3, 0xf5, 0xc8, 0xd4, 0xf7, 0x4a, 0x10, 0xe6, 0x4d,
    0xbf, 0x36, 0x0f, 0x05, 0x1f, 0x5a, 0xa2, 0xc6, 0xde, 0xd9, 0x01, 0x17,
    0xbf, 0x2f, 0x0e, 0xbd, 0x14, 0x3c, 0xd6, 0x24, 0x98, 0x8b, 0x13, 0xd0,
    0xe7, 0x1a, 0x0b, 0x55, 0x35, 0xcd, 0x45, 0xe8, 0xb3, 0x0a, 0x28, 0xc0,
    0x22, 0x1e, 0x04, 0xc3, 0xff, 0x3d, 0x50, 0x2a, 0x57, 0x15, 0xd7, 0x28,
    0x04, 0x28, 0x11, 0xca, 0xe7, 0xa9, 0x8f, 0xd4, 0x17, 0x17, 0xff, 0x1c,
    0xe2, 0x3d, 0xdf, 0x3f, 0xf9, 0x29, 0xb6, 0x19, 0xe7, 0x12, 0x45, 0x48,
    0x6e, 0x2f, 0x1b, 0xe5, 0x49, 0xf1, 0x68, 0xa0, 0xf5, 0x81, 0x1f, 0x0d,
    0x47, 0x2e, 0xc6, 0x4c, 0x9d, 0x02, 0x65, 0xcb, 0xa9, 0x31, 0x0d, 0x0b,
    0x3f, 0xc2, 0x34, 0x09, 0xf6, 0x04, 0xfc, 0x4d, 0x41, 0x00, 0xae, 0x44,
    0x1f, 0xbe, 0xc2, 0xe4, 0x02, 0xb3, 0x68, 0x53, 0xe1, 0x09, 0xe7, 0x0d,
    0xa9, 0xf8, 0xf5, 0xd4, 0xbe, 0xf8, 0x2f, 0xf4, 0xe9, 0x17, 0x16, 0x1d,
    0xe5, 0xe9, 0x36, 0x09, 0xec, 0x09, 0x81, 0x1c, 0xf1, 0xb2, 0x3a, 0xda,
    0x3d, 0x20, 0xef, 0xf6, 0x4b, 0x24, 0xf6, 0x13, 0x2a, 0xd4, 0x2e, 0x2b,
    0xfb, 0xf1, 0x39, 0xed, 0x0a, 0x29, 0x0c, 0x49, 0x27, 0xb7, 0x34, 0x27,
    0xe6, 0xd7, 0x22, 0x31, 0x17, 0xba, 0x5b, 0x27, 0x2b, 0xa6, 0xf3, 0x0e,
    0xc3, 0x57, 0xca, 0x4f, 0xdc, 0xdf, 0x09, 0xd7, 0x19, 0xef, 0x38, 0xe7,
    0x04, 0x2c, 0x36, 0xec, 0x01, 0x1f, 0x12, 0x61, 0x05, 0xe4, 0x1c, 0x43,
    0x28, 0xe2, 0x44, 0xff, 0xcd, 0xbc, 0x25, 0x08, 0x39, 0xf0, 0xec, 0x40,
    0xb6, 0xd7, 0x0f, 0x0b, 0xbd, 0x34, 0x03, 0x23, 0xe8, 0xd0, 0xf3, 0x40,
    0x2e, 0xe7, 0x1f, 0x40, 0x31, 0x0c, 0xa5, 0x40, 0x06, 0xc7, 0x72, 0x0d,
    0xd5, 0xb4, 0xfa, 0xbe, 0xf9, 0x2f, 0x13, 0x42, 0xa2, 0x0d, 0x1d, 0x32,
    0xff, 0x1a, 0xcf, 0x3a, 0x2c, 0x50, 0x1f, 0x14, 0x0e, 0xdb, 0x0a, 0x5e,
    0x40, 0x2b, 0x1c, 0xf9, 0xd5, 0xb7, 0xfb, 0xc7, 0x0b, 0xce, 0x27, 0xc4,
    0xec, 0x3b, 0xde, 0x02, 0x1b, 0x70, 0x24, 0xf4, 0x27, 0xec, 0x31, 0xec,
    0xd9, 0xb3, 0x0b, 0xda, 0x47, 0xa8, 0xcd, 0xf1, 0x3b, 0xa6, 0xb2, 0x1d,
    0x02, 0x1e, 0x21, 0xd4, 0x14, 0xa4, 0x5d, 0xc4, 0x25, 0xc7, 0x29, 0x2f,
    0xbb, 0xf2, 0xdf, 0x24, 0xf6, 0x03, 0x2e, 0x5c, 0xdc, 0x0e, 0x37, 0xd6,
    0x01, 0xc7, 0x41, 0xf7, 0x09, 0xa6, 0xcd, 0xc7, 0x16, 0xe4, 0x1f, 0xf2,
    0xcb, 0xe6, 0x4e, 0x42, 0x30, 0x38, 0xf2, 0x37, 0xef, 0xd9, 0x12, 0xea,
    0x21, 0xe7, 0x59, 0x10, 0xff, 0xe7, 0xb8, 0x1e, 0x20, 0xf9, 0xf0, 0xe3,
    0x38, 0x3a, 0x01, 0xcb, 0xe2, 0x28, 0x41, 0x18, 0xa5, 0xd7, 0xe1, 0x0a,
    0xfb, 0x56, 0x3a, 0x11, 0x34, 0x1f, 0xfd, 0xc7, 0xc8, 0xe8, 0x27, 0xcd,
    0xc7, 0x3a, 0xd1, 0x49, 0xff, 0xc1, 0xd7, 0x42, 0x0f, 0x49, 0xc2, 0xfb,
